<unk>	0
<s>	0
</s>	0
.	-2.38421
▁the	-3.40535
▁to	-3.66132
▁I	-3.73915
▁a	-3.89714
▁is	-4.05974
'	-4.11828
s	-4.13691
▁of	-4.26821
,	-4.34076
▁in	-4.37014
▁He	-4.42199
▁you	-4.50988
▁The	-4.51145
▁was	-4.78101
t	-4.79372
?	-4.85523
▁for	-4.88206
▁that	-5.1281
▁on	-5.14818
▁his	-5.15166
▁have	-5.17831
▁	-5.19243
▁She	-5.23019
▁with	-5.24917
▁it	-5.25397
▁me	-5.25924
▁and	-5.27831
▁he	-5.31968
▁at	-5.33649
▁my	-5.38724
▁not	-5.41989
▁are	-5.44388
▁be	-5.46012
▁her	-5.48628
ed	-5.50744
▁It	-5.58305
▁We	-5.58317
n	-5.60529
▁this	-5.60958
▁as	-5.61375
▁will	-5.63101
▁him	-5.65494
▁your	-5.67346
▁You	-5.73203
d	-5.76688
▁has	-5.7843
▁by	-5.81084
ing	-5.81637
▁can	-5.84815
▁from	-5.86671
▁up	-5.86974
▁had	-5.9203
▁out	-5.93781
▁do	-5.96005
m	-6.00456
▁all	-6.03123
▁This	-6.03144
▁like	-6.06102
▁go	-6.16008
▁an	-6.16556
▁time	-6.17818
▁she	-6.23922
▁They	-6.247
▁about	-6.2618
▁My	-6.26265
▁very	-6.2872
▁but	-6.29686
▁so	-6.30676
▁were	-6.30801
▁we	-6.32972
▁good	-6.34583
▁no	-6.37599
ll	-6.38773
▁A	-6.39798
▁did	-6.40675
▁get	-6.42375
▁There	-6.47978
▁what	-6.48058
▁What	-6.50501
▁been	-6.51615
▁when	-6.53551
▁don	-6.5467
▁than	-6.55039
▁come	-6.57006
▁one	-6.57081
-	-6.58188
▁would	-6.58654
▁should	-6.59094
▁there	-6.62277
▁must	-6.62624
▁man	-6.63553
▁His	-6.64241
▁our	-6.64355
▁more	-6.65109
▁work	-6.66503
▁know	-6.6683
▁am	-6.68976
▁see	-6.71569
▁day	-6.71936
▁make	-6.72149
▁made	-6.72398
▁take	-6.73125
▁could	-6.74057
ly	-6.76114
▁people	-6.76268
▁us	-6.76574
y	-6.76673
▁"	-6.77125
▁much	-6.78177
▁into	-6.78355
▁went	-6.7995
▁got	-6.82096
▁here	-6.8361
!	-6.83666
▁over	-6.85728
▁money	-6.85824
▁off	-6.87142
▁last	-6.87734
▁How	-6.87982
▁if	-6.89302
▁going	-6.89388
▁way	-6.89416
▁school	-6.89617
▁new	-6.9143
▁well	-6.91436
▁home	-6.91531
▁long	-6.92795
▁That	-6.92891
▁car	-6.93544
▁English	-6.94234
▁now	-6.95513
re	-6.95803
▁book	-6.95855
▁Please	-6.96605
▁want	-6.96818
▁too	-6.97289
▁any	-6.97825
▁down	-6.98024
▁their	-6.98742
▁If	-6.99794
▁think	-6.99938
▁does	-7.00295
▁father	-7.00469
▁house	-7.0061
▁or	-7.00862
▁two	-7.00981
l	-7.01502
▁Don	-7.02523
▁after	-7.03961
▁before	-7.04416
▁came	-7.06165
▁some	-7.06187
▁room	-7.06325
▁many	-7.06975
▁Do	-7.0767
ve	-7.08319
▁always	-7.08465
e	-7.09116
▁back	-7.09329
▁old	-7.09336
▁help	-7.10646
▁better	-7.11196
▁they	-7.11972
▁put	-7.12165
▁just	-7.12459
▁said	-7.17984
▁say	-7.18475
▁may	-7.18544
▁hard	-7.19814
▁who	-7.209
▁little	-7.21613
▁other	-7.22225
▁took	-7.23745
▁such	-7.24266
er	-7.24537
▁When	-7.24662
▁never	-7.24811
▁years	-7.25606
▁life	-7.26701
▁next	-7.28232
▁mother	-7.31068
▁only	-7.32576
▁lot	-7.33068
▁every	-7.33328
▁Let	-7.3349
▁night	-7.33679
▁In	-7.34236
▁Japan	-7.34702
▁away	-7.35168
▁great	-7.35428
▁cannot	-7.36048
▁tomorrow	-7.37095
▁left	-7.37306
▁soon	-7.38992
▁first	-7.39117
▁nothing	-7.3912
▁right	-7.40411
▁year	-7.40942
▁three	-7.4173
▁boy	-7.41929
▁tell	-7.42219
▁today	-7.44397
▁children	-7.45438
▁teacher	-7.4596
▁yesterday	-7.46012
▁train	-7.47247
▁how	-7.48916
▁look	-7.49644
▁because	-7.49766
▁gave	-7.50008
▁give	-7.51098
▁best	-7.51925
▁Can	-7.52983
▁often	-7.533
▁read	-7.53426
▁live	-7.53655
▁them	-7.54794
▁turn	-7.56569
▁without	-7.56766
▁again	-7.57068
▁plan	-7.57183
▁speak	-7.57646
▁used	-7.57909
▁use	-7.57965
▁week	-7.57975
▁morning	-7.58245
▁being	-7.58358
▁please	-7.58714
▁late	-7.5873
▁job	-7.59594
▁keep	-7.59827
▁play	-7.60393
▁once	-7.61146
▁party	-7.61215
▁rain	-7.62855
▁days	-7.63812
▁saw	-7.64003
▁cold	-7.64347
▁dog	-7.6464
▁No	-7.64643
▁water	-7.64711
▁Her	-7.65058
▁ten	-7.65162
▁Tom	-7.65458
▁mind	-7.6652
▁Japanese	-7.66945
▁problem	-7.67076
▁matter	-7.67226
▁accident	-7.67521
▁name	-7.67812
▁lost	-7.67939
▁world	-7.68082
▁girl	-7.68529
▁Mr	-7.69434
▁call	-7.69447
▁which	-7.70113
▁need	-7.70161
▁around	-7.71041
▁All	-7.71773
▁far	-7.71817
▁own	-7.72074
▁told	-7.72802
▁anything	-7.73117
▁bus	-7.7314
▁still	-7.73389
▁bad	-7.73754
▁something	-7.74302
▁As	-7.7472
▁found	-7.748
▁child	-7.75063
▁leave	-7.7535
▁young	-7.75566
▁Our	-7.7569
▁company	-7.75842
▁station	-7.76152
▁letter	-7.76458
▁hand	-7.76686
▁through	-7.76927
▁kind	-7.76967
▁study	-7.77423
▁feel	-7.7744
▁door	-7.7762
▁country	-7.77716
▁where	-7.78098
▁heard	-7.79937
▁while	-7.7996
▁place	-7.80368
▁news	-7.80697
▁C	-7.81175
es	-7.81307
▁business	-7.81912
▁S	-7.82717
▁thing	-7.82722
▁meeting	-7.82966
▁walk	-7.83046
▁find	-7.83955
▁doctor	-7.84727
▁students	-7.84759
▁these	-7.84782
▁asked	-7.84858
r	-7.85021
."	-7.85085
▁books	-7.86948
▁brother	-7.87693
▁against	-7.87706
▁true	-7.88038
▁enough	-7.88213
▁really	-7.88248
▁let	-7.89275
▁himself	-7.8945
▁most	-7.89469
▁friend	-7.90085
▁looked	-7.90589
▁Who	-7.90631
▁called	-7.91396
▁high	-7.91419
▁friends	-7.92116
al	-7.92685
▁love	-7.92702
▁few	-7.93553
▁family	-7.9381
▁won	-7.944
▁beautiful	-7.94438
▁son	-7.94884
▁care	-7.94898
▁seems	-7.95017
i	-7.95115
▁story	-7.95875
▁To	-7.95988
▁buy	-7.96336
▁things	-7.96346
▁another	-7.96358
▁seen	-7.96584
▁five	-7.96664
▁parents	-7.97494
▁person	-7.97734
"	-7.97863
▁sister	-7.97964
▁happy	-7.97982
▁ever	-7.98838
▁Your	-7.99122
a	-7.9922
▁town	-7.99358
o	-7.9953
p	-8.00266
▁hear	-8.00589
▁Tokyo	-8.00929
▁early	-8.01345
▁run	-8.01358
▁face	-8.01412
▁looking	-8.01641
▁weather	-8.01738
quite	-8.01796
▁difficult	-8.01807
▁tried	-8.02147
▁month	-8.02381
▁show	-8.02567
▁end	-8.03293
▁game	-8.04042
▁class	-8.04132
▁food	-8.04171
▁large	-8.04531
▁ran	-8.04597
▁stay	-8.04711
▁city	-8.04794
▁each	-8.05001
▁watch	-8.05295
▁John	-8.0562
▁talk	-8.06509
▁bought	-8.0668
▁Where	-8.07118
▁yourself	-8.07309
▁wrong	-8.07522
▁health	-8.07621
▁sure	-8.07624
▁bed	-8.07877
▁big	-8.092
▁believe	-8.0936
▁Have	-8.09526
▁Will	-8.10369
c	-8.10936
▁able	-8.10938
▁same	-8.11211
▁word	-8.11233
▁words	-8.11461
▁eat	-8.11771
th	-8.12082
▁met	-8.12353
▁set	-8.12357
?"	-8.12784
▁order	-8.13041
▁music	-8.13168
g	-8.1339
▁meet	-8.13489
▁office	-8.13749
▁question	-8.13913
▁answer	-8.13948
▁May	-8.14178
▁fire	-8.1426
▁thought	-8.14287
▁under	-8.14345
▁unti	-8.14517
▁river	-8.14581
▁1	-8.14676
▁looks	-8.14849
▁idea	-8.14982
▁others	-8.15113
▁Are	-8.1547
▁done	-8.15534
▁busy	-8.16138
▁part	-8.16341
▁small	-8.16356
▁goes	-8.17203
▁yet	-8.17378
▁Why	-8.17621
u	-8.17923
▁easy	-8.1807
▁began	-8.18071
▁hours	-8.18765
▁hope	-8.18789
▁air	-8.18831
▁E	-8.19021
▁since	-8.19091
▁comes	-8.20012
▁tired	-8.2025
▁its	-8.20728
▁present	-8.20774
▁wife	-8.20951
▁success	-8.21029
▁T	-8.21073
▁street	-8.21089
▁having	-8.21206
▁Did	-8.21209
▁open	-8.21966
▁finished	-8.22194
▁point	-8.22352
▁baby	-8.22424
▁case	-8.22585
▁myself	-8.22671
ther	-8.22775
▁reading	-8.23018
▁pay	-8.23362
▁caught	-8.23418
▁those	-8.2342
▁poor	-8.2367
▁important	-8.2417
▁coming	-8.24294
▁Man	-8.24753
▁eyes	-8.24979
▁tennis	-8.25181
▁even	-8.25323
▁short	-8.25357
▁everything	-8.25436
▁broke	-8.25833
▁less	-8.25965
▁Would	-8.25975
▁along	-8.26254
▁wish	-8.26419
▁ask	-8.26638
▁light	-8.27718
▁heart	-8.27885
▁fell	-8.28274
▁un	-8.28354
▁police	-8.28528
▁student	-8.28808
▁ill	-8.28866
▁Mary	-8.29344
▁try	-8.29566
▁nice	-8.29603
▁between	-8.29864
▁gone	-8.30479
▁change	-8.30658
▁sun	-8.30999
▁On	-8.31071
▁felt	-8.31474
▁full	-8.31611
▁truth	-8.31745
▁alone	-8.31745
▁Some	-8.32016
▁summer	-8.32017
▁ago	-8.32268
▁trouble	-8.32314
▁coffee	-8.32562
getting	-8.32683
▁arrived	-8.32753
ting	-8.33417
▁At	-8.33712
▁write	-8.33936
▁afraid	-8.34218
▁number	-8.34222
▁death	-8.34775
▁doing	-8.34928
▁sight	-8.35006
▁men	-8.35027
▁near	-8.35317
or	-8.35494
▁head	-8.35665
ever	-8.3577
▁fast	-8.35804
▁minutes	-8.35827
▁picture	-8.36025
▁become	-8.36025
▁lives	-8.36366
b	-8.36382
▁brought	-8.36753
▁kept	-8.37039
▁fact	-8.37357
▁table	-8.37617
▁free	-8.38135
▁makes	-8.3829
▁examination	-8.3848
▁times	-8.38689
▁cut	-8.38707
▁snow	-8.38758
▁lived	-8.3893
▁understand	-8.39055
▁fine	-8.39065
▁age	-8.39136
▁These	-8.39555
▁married	-8.39648
▁stop	-8.39828
ould	-8.40205
ce	-8.40388
▁advice	-8.40532
able	-8.41312
▁playing	-8.41495
▁catch	-8.41733
▁French	-8.42326
▁TV	-8.42327
▁abroad	-8.42628
▁across	-8.42628
▁angry	-8.42931
▁park	-8.42935
▁war	-8.43051
▁carry	-8.43267
▁New	-8.43542
▁hot	-8.43745
▁six	-8.43839
▁road	-8.43867
▁start	-8.44631
▁speech	-8.44726
▁dinner	-8.44769
▁account	-8.45053
▁America	-8.45331
▁P	-8.46742
▁happened	-8.46838
▁remember	-8.46864
▁making	-8.46957
▁drink	-8.4698
▁smoking	-8.47297
▁trip	-8.47341
▁o	-8.47392
▁dress	-8.47782
▁dur	-8.47856
▁behind	-8.47909
se	-8.48225
▁might	-8.48229
▁hour	-8.48277
▁swim	-8.48548
▁living	-8.48554
▁store	-8.48904
▁paper	-8.48918
▁started	-8.4897
en	-8.49372
▁rich	-8.49533
▁sick	-8.49832
▁cat	-8.50239
▁window	-8.50892
▁yen	-8.51161
▁whe	-8.51323
▁taken	-8.51354
▁homework	-8.51495
▁hotel	-8.51822
▁Sunday	-8.51895
▁Be	-8.52758
▁why	-8.53148
▁working	-8.53384
▁sleep	-8.53408
▁dictionary	-8.53822
▁agree	-8.53833
less	-8.53846
▁B	-8.53867
taking	-8.54031
▁visit	-8.54111
▁learn	-8.54138
▁means	-8.54269
▁uncle	-8.54501
▁says	-8.54823
▁sense	-8.54843
▁For	-8.54858
▁red	-8.5489
▁woman	-8.55197
▁One	-8.55299
▁plane	-8.55334
▁talking	-8.55669
in	-8.55788
▁team	-8.5644
▁died	-8.56514
▁herself	-8.56567
▁mistake	-8.57065
▁already	-8.57265
▁wanted	-8.57515
▁dollars	-8.57605
▁wait	-8.57896
▁mine	-8.57968
▁became	-8.58321
▁tree	-8.58517
▁pass	-8.58887
le	-8.59226
▁opinion	-8.5924
▁known	-8.59427
▁decided	-8.5984
▁failed	-8.60041
▁building	-8.60056
▁heavy	-8.60141
▁ship	-8.60178
▁sorry	-8.60468
▁together	-8.60468
ers	-8.60771
▁bring	-8.60832
▁Not	-8.61159
▁strong	-8.6137
▁dark	-8.61475
▁waiting	-8.61502
on	-8.61535
▁whole	-8.62012
▁traffic	-8.62293
0	-8.62956
▁earth	-8.6304
▁rather	-8.6341
▁succeed	-8.63747
▁longer	-8.63793
▁hair	-8.64151
▁After	-8.64528
I	-8.64629
ro	-8.64908
▁possible	-8.64912
▁also	-8.65284
▁baseball	-8.65284
▁rest	-8.65656
▁London	-8.65664
ion	-8.65954
▁mountain	-8.66033
▁garden	-8.66046
▁stand	-8.66106
▁interesting	-8.66207
▁finish	-8.66409
▁moment	-8.66816
▁held	-8.67207
▁phone	-8.67227
▁tea	-8.67316
▁knows	-8.67553
▁passed	-8.67639
▁different	-8.67859
▁worked	-8.67871
▁evening	-8.68042
clock	-8.68197
▁afternoon	-8.68367
▁sea	-8.68394
▁lunch	-8.68759
f	-8.69182
h	-8.69457
▁white	-8.69548
▁wonder	-8.69561
est	-8.69901
▁reason	-8.69933
▁shall	-8.69941
▁Take	-8.69969
▁both	-8.70603
▁medicine	-8.70743
w	-8.71121
▁famous	-8.71155
▁sat	-8.71183
▁telephone	-8.71635
▁likes	-8.71703
▁college	-8.72767
ic	-8.72903
▁fish	-8.73266
▁wind	-8.73298
▁walked	-8.73349
▁future	-8.73589
▁speaking	-8.7371
▁hit	-8.73843
▁saying	-8.74166
▁forward	-8.74209
▁side	-8.74307
▁four	-8.7439
▁tonight	-8.74421
▁clear	-8.74728
▁Jane	-8.75256
k	-8.75587
▁hands	-8.75689
▁wants	-8.75763
▁box	-8.76079
▁hospital	-8.76083
▁drive	-8.76167
▁then	-8.76178
▁language	-8.76208
▁cost	-8.76213
▁travel	-8.76235
▁above	-8.76743
▁forget	-8.76859
▁But	-8.76948
▁test	-8.76949
lmost	-8.77209
▁line	-8.77219
▁Ken	-8.77387
ri	-8.77399
▁result	-8.77533
▁careful	-8.77698
▁running	-8.77808
▁half	-8.78226
▁deal	-8.78543
▁sky	-8.78664
usually	-8.78668
▁price	-8.78824
▁shoes	-8.78856
▁easily	-8.79099
▁government	-8.791
▁dream	-8.79263
▁desk	-8.79536
▁born	-8.79554
▁M	-8.79695
▁surprised	-8.797
▁knew	-8.79974
▁view	-8.80169
▁rule	-8.80278
▁front	-8.80415
▁studying	-8.80807
▁piano	-8.80857
▁With	-8.8086
▁husband	-8.80866
▁flowers	-8.8124
▁strange	-8.81256
▁Every	-8.81298
▁York	-8.81301
▁return	-8.81484
▁bank	-8.81964
▁shop	-8.8223
▁tall	-8.8229
▁cause	-8.82606
▁close	-8.8263
▁bicycle	-8.82647
▁American	-8.83416
▁till	-8.83555
▁noise	-8.83586
▁stood	-8.8401
▁dead	-8.84011
▁Look	-8.84025
▁movie	-8.84267
▁public	-8.84469
▁everyone	-8.84483
▁daughter	-8.84727
▁offer	-8.8477
▁ready	-8.84893
▁post	-8.84969
▁sound	-8.85209
▁machine	-8.85386
▁chance	-8.8567
▁report	-8.8582
▁Now	-8.85915
▁mistakes	-8.86564
▁certain	-8.8715
▁foreign	-8.87177
▁past	-8.87274
▁takes	-8.87295
▁hat	-8.8739
▁later	-8.87409
▁People	-8.8774
▁Which	-8.8774
▁enjoy	-8.87799
▁boys	-8.87834
ation	-8.88056
▁exam	-8.88059
▁mean	-8.88083
▁breakfast	-8.88217
▁clothes	-8.88229
▁break	-8.88248
ra	-8.88297
▁seeing	-8.88422
▁bag	-8.88625
▁someone	-8.88715
ch	-8.8908
▁second	-8.89173
▁fall	-8.89269
▁sometimes	-8.89358
▁An	-8.89446
▁village	-8.90138
▁visited	-8.90237
▁Come	-8.90309
▁eye	-8.90522
▁secret	-8.90623
▁danger	-8.90625
▁paid	-8.90633
▁ought	-8.90634
▁tears	-8.90866
▁subject	-8.91505
▁fail	-8.916
▁seat	-8.9187
▁winter	-8.92111
▁information	-8.92113
▁given	-8.92128
▁lie	-8.92726
ur	-8.92816
▁worth	-8.92999
▁novel	-8.93021
▁several	-8.93109
▁coat	-8.93123
▁Mother	-8.93614
▁stopped	-8.93621
▁hold	-8.94306
▁send	-8.95136
▁Father	-8.95138
▁necessary	-8.95158
▁touch	-8.95526
▁honest	-8.95531
▁stayed	-8.95619
▁p	-8.95643
▁wrote	-8.95646
▁voice	-8.96161
▁bit	-8.96527
▁everybody	-8.96679
▁impossible	-8.96679
▁vacation	-8.96679
▁pretty	-8.9668
▁camera	-8.97294
▁club	-8.97726
▁wall	-8.98245
▁women	-8.98251
▁cup	-8.98255
▁seven	-8.98265
▁win	-8.98372
▁Even	-8.9878
▁countries	-8.9878
▁Bill	-8.98784
▁F	-8.98791
▁W	-8.98924
▁clean	-8.98996
▁milk	-8.99311
▁L	-8.99313
▁lake	-8.99313
▁thinking	-8.99358
it	-8.99585
▁proposal	-8.99846
▁quickly	-8.99905
ment	-8.99956
hose	-9.00049
▁smoke	-9.00172
▁least	-9.00383
▁television	-9.00383
▁writing	-9.00383
▁played	-9.00399
▁address	-9.00516
▁among	-9.00637
▁animals	-9.00671
▁Give	-9.00931
▁Jim	-9.01467
▁Paris	-9.01467
▁absent	-9.02014
▁swimming	-9.02016
▁hill	-9.02038
▁black	-9.02562
▁failure	-9.02567
▁lose	-9.02646
▁solve	-9.02917
▁carried	-9.03116
▁glad	-9.03117
▁trying	-9.03183
▁speaks	-9.03188
▁gets	-9.03528
▁human	-9.03661
▁Kyoto	-9.03671
▁concert	-9.03671
▁written	-9.03671
▁Keep	-9.03701
▁computer	-9.03762
ar	-9.03826
▁girls	-9.0417
▁situation	-9.0423
▁top	-9.04278
▁boss	-9.04792
▁lend	-9.04792
▁bridge	-9.05357
▁check	-9.05629
uch	-9.05892
▁library	-9.05925
▁fear	-9.05938
▁upon	-9.06367
▁storm	-9.06399
▁bear	-9.06449
▁watching	-9.06742
▁leaves	-9.07174
▁warm	-9.07474
▁song	-9.07476
▁studied	-9.07649
▁umbrella	-9.07649
▁sent	-9.07656
▁pen	-9.07833
▁promise	-9.08076
▁sit	-9.08417
▁law	-9.08665
ity	-9.08799
▁popular	-9.08812
▁support	-9.08815
▁birthday	-9.08818
▁raining	-9.0892
▁fun	-9.09086
ness	-9.09149
▁die	-9.09373
▁blue	-9.09404
▁expensive	-9.09404
▁ball	-9.09436
▁accept	-9.09567
▁spoke	-9.09625
▁By	-9.09635
▁built	-9.1001
▁due	-9.10072
S	-9.10384
▁works	-9.10505
il	-9.10527
▁spent	-9.10592
▁Bob	-9.10611
▁radio	-9.10647
▁hardly	-9.10772
▁cake	-9.10801
▁peace	-9.11185
▁knowledge	-9.11189
▁airport	-9.11195
▁illness	-9.11215
▁broken	-9.1147
▁So	-9.11481
▁real	-9.1158
▁experience	-9.11694
▁succeeded	-9.11841
▁hundred	-9.12398
▁crowd	-9.12632
▁closed	-9.12821
▁quiet	-9.12891
▁deep	-9.12895
▁arrive	-9.12959
▁prefer	-9.1325
▁move	-9.13319
▁pain	-9.13485
▁D	-9.13495
▁bill	-9.13625
▁Smith	-9.14238
▁else	-9.14238
▁miss	-9.14288
ng	-9.14473
▁loss	-9.14821
▁arm	-9.1485
▁beauty	-9.14859
▁hurry	-9.14859
▁purpose	-9.14859
▁killed	-9.14998
▁walking	-9.15349
▁finally	-9.15537
▁feeling	-9.157
▁ability	-9.15713
▁amount	-9.16126
▁policeman	-9.16134
▁England	-9.16746
▁leaving	-9.16746
▁sad	-9.16751
▁completely	-9.16797
▁singer	-9.16861
vi	-9.16935
▁expected	-9.17113
▁behavior	-9.17383
▁decision	-9.17383
▁project	-9.17395
▁pick	-9.17623
▁moved	-9.17712
▁spend	-9.17721
▁O	-9.1775
te	-9.18014
▁driving	-9.18024
▁market	-9.18027
▁course	-9.18044
▁attention	-9.18085
▁Put	-9.18137
▁happen	-9.18318
▁doubt	-9.1836
▁missed	-9.1845
▁join	-9.18467
▁restaurant	-9.1867
▁de	-9.1888
to	-9.19017
▁newspaper	-9.19035
▁eight	-9.19207
▁10	-9.19256
▁spring	-9.1932
▁Their	-9.19347
▁problems	-9.19348
at	-9.19411
▁history	-9.19413
▁trees	-9.1961
▁anyone	-9.19637
▁interested	-9.19692
▁enjoyed	-9.19874
▁common	-9.19972
▁general	-9.19973
▁foot	-9.1999
▁efforts	-9.20129
▁re	-9.20171
as	-9.20306
▁horse	-9.20358
▁reached	-9.20363
▁Thank	-9.20396
▁glass	-9.20589
▁helped	-9.20617
▁Everybody	-9.2063
▁asleep	-9.2063
▁distance	-9.2063
▁floor	-9.2063
▁seem	-9.2091
▁hurt	-9.21026
▁toward	-9.21084
▁boat	-9.21293
▁bath	-9.21391
▁U	-9.21686
▁ticket	-9.21711
▁bird	-9.21738
▁anxious	-9.21959
▁proud	-9.21961
▁moon	-9.21963
▁worse	-9.21967
▁president	-9.21976
▁round	-9.22017
▁learned	-9.22086
▁attend	-9.22584
▁Everyone	-9.22635
▁Go	-9.22891
▁God	-9.22945
▁practice	-9.22984
▁position	-9.23306
▁changed	-9.2342
▁reach	-9.23594
▁questions	-9.2394
▁kindness	-9.24035
▁taxi	-9.2404
▁G	-9.24249
▁And	-9.24503
▁serious	-9.24555
▁Bo	-9.24981
▁fool	-9.25357
▁See	-9.25514
▁notice	-9.25832
▁twice	-9.26055
▁charge	-9.26446
▁favor	-9.26727
▁expect	-9.26736
▁shopping	-9.2676
▁received	-9.26951
▁patient	-9.27277
▁interest	-9.2729
▁effort	-9.2729
▁drinking	-9.27417
▁provide	-9.27459
▁enter	-9.27764
▁suit	-9.27871
▁follow	-9.28016
▁lay	-9.28034
ach	-9.28042
▁older	-9.28085
▁bound	-9.2817
▁usual	-9.28347
▁lack	-9.2858
▁keeps	-9.28782
▁United	-9.28882
▁body	-9.28882
▁grew	-9.28883
▁thousand	-9.28887
▁listen	-9.28907
▁driver	-9.2903
▁crying	-9.2916
▁land	-9.29184
▁seemed	-9.29335
▁months	-9.29439
ate	-9.29601
▁difference	-9.29602
▁Nothing	-9.29602
▁act	-9.29705
▁wine	-9.29843
▁needs	-9.30109
▁habit	-9.3019
▁date	-9.30206
▁b	-9.30314
▁beyond	-9.30326
▁Never	-9.30336
▁dangerous	-9.30337
▁entered	-9.30742
▁Nobody	-9.31056
▁prize	-9.31056
▁duty	-9.31059
▁slowly	-9.31138
▁sign	-9.31218
▁outside	-9.31245
el	-9.31276
▁university	-9.31792
▁lady	-9.31792
▁mail	-9.31938
▁none	-9.32102
ive	-9.32158
▁terms	-9.32387
▁fault	-9.32438
▁couple	-9.32532
▁sort	-9.32541
▁cars	-9.33115
▁manage	-9.33127
▁begin	-9.33194
▁match	-9.33238
▁Just	-9.3328
▁race	-9.33289
▁ahead	-9.33412
▁weight	-9.33678
up	-9.33692
▁income	-9.34031
▁rumor	-9.34033
▁fishing	-9.34579
ies	-9.34628
▁Europe	-9.3478
▁Jack	-9.3479
▁suddenly	-9.34899
▁States	-9.34968
▁respect	-9.3499
00	-9.35024
ist	-9.35169
▁sing	-9.3525
▁audience	-9.35551
▁Tell	-9.3556
▁sitting	-9.35586
▁remind	-9.35635
ary	-9.35643
5	-9.35811
▁5	-9.35818
▁cry	-9.36057
▁standing	-9.36149
▁ideas	-9.3621
▁poet	-9.36316
▁stone	-9.36321
▁power	-9.36356
▁opened	-9.36817
▁Osaka	-9.37096
▁advantage	-9.37096
▁flight	-9.371
▁either	-9.371
▁area	-9.3721
▁ice	-9.37246
man	-9.37258
▁trust	-9.37467
▁wise	-9.37719
▁key	-9.3785
▁enemy	-9.37877
▁exercise	-9.37877
▁twenty	-9.37877
▁alive	-9.37879
▁wear	-9.38111
▁Does	-9.38294
▁-	-9.38426
▁talked	-9.38595
▁returned	-9.38599
▁regard	-9.3864
▁Children	-9.38665
▁fruit	-9.38665
▁mouth	-9.38665
▁task	-9.38665
▁drop	-9.38893
▁sports	-9.3927
ne	-9.39286
▁meat	-9.39286
▁sudden	-9.39342
us	-9.39414
▁church	-9.39458
▁piece	-9.39477
▁art	-9.39534
▁cook	-9.39542
▁dogs	-9.39719
▁birds	-9.39752
▁blame	-9.39941
▁education	-9.40223
▁clever	-9.40258
▁master	-9.4026
▁Try	-9.40282
▁Because	-9.40283
▁carefully	-9.40482
▁pleased	-9.4058
▁within	-9.40674
▁rules	-9.40726
▁sell	-9.40808
▁Monday	-9.41065
ent	-9.4117
▁f	-9.41187
▁grow	-9.4121
▁oil	-9.41216
▁eating	-9.41343
▁telling	-9.41619
▁natural	-9.4176
▁grandfather	-9.41878
▁itself	-9.41878
▁value	-9.41878
▁joy	-9.41878
▁main	-9.41885
▁earthquake	-9.4191
▁ground	-9.41924
▁anger	-9.41947
▁save	-9.42389
▁harder	-9.42529
▁special	-9.42598
▁Mt	-9.42628
▁record	-9.42691
▁nine	-9.42692
▁argument	-9.42697
▁pleasure	-9.42697
▁system	-9.42697
ver	-9.42754
▁difficulty	-9.43167
▁sooner	-9.4324
▁burst	-9.43524
▁Mike	-9.43528
▁Get	-9.43562
▁writer	-9.43808
▁covered	-9.43813
▁thank	-9.43896
▁surprise	-9.44043
▁results	-9.44088
▁c	-9.44206
an	-9.44216
▁million	-9.44361
▁theory	-9.44369
▁chair	-9.44427
▁joke	-9.44442
▁Oh	-9.446
▁meaning	-9.44882
▁Two	-9.45197
▁afford	-9.45197
▁themselves	-9.45197
▁waited	-9.45321
▁character	-9.45579
▁player	-9.45749
▁e	-9.4581
▁tax	-9.45938
▁learning	-9.45941
▁sleeping	-9.45947
▁satisfied	-9.46045
▁population	-9.46052
▁injured	-9.4606
▁corner	-9.46061
▁lying	-9.4607
▁recently	-9.46093
▁star	-9.46116
▁stands	-9.4615
co	-9.46157
▁wonderful	-9.46191
▁flower	-9.46226
▁feet	-9.46255
▁firm	-9.46781
▁judge	-9.46888
▁nature	-9.469
▁committee	-9.46907
▁regret	-9.46924
▁leg	-9.47004
▁fit	-9.47007
▁faults	-9.47009
▁crime	-9.47762
▁though	-9.47799
▁king	-9.47909
▁holiday	-9.47912
▁Here	-9.4821
is	-9.48389
▁runs	-9.48487
▁island	-9.48584
▁Since	-9.48631
▁green	-9.48631
▁action	-9.48818
op	-9.48845
▁whatever	-9.49108
!"	-9.4914
▁lawyer	-9.49509
▁invited	-9.49635
▁figure	-9.49685
▁concerned	-9.49704
ical	-9.49761
▁rate	-9.49902
A	-9.5001
▁Well	-9.50102
▁film	-9.50393
▁waste	-9.50466
▁thirty	-9.50557
▁season	-9.50578
▁advance	-9.50978
▁equal	-9.51155
▁fresh	-9.51287
▁Tony	-9.51288
▁likely	-9.5133
▁beat	-9.51539
▁quit	-9.51909
▁fly	-9.52055
▁rose	-9.52416
▁minute	-9.52467
▁clock	-9.52586
▁painting	-9.52628
ated	-9.52705
ru	-9.52868
▁bright	-9.52963
▁scholar	-9.53094
▁energy	-9.53096
▁gas	-9.53144
▁dropped	-9.53149
▁2	-9.53179
▁beside	-9.53475
▁staying	-9.53497
▁movies	-9.53499
▁apples	-9.53647
▁smile	-9.53699
▁eggs	-9.53707
▁20	-9.53753
ha	-9.53873
▁safe	-9.53889
▁happiness	-9.54014
▁shot	-9.54016
▁prevented	-9.5421
▁magazine	-9.54263
▁group	-9.54268
▁singing	-9.54375
x	-9.54454
▁marry	-9.54633
▁worry	-9.54639
▁careless	-9.54907
▁bread	-9.5494
▁neither	-9.5494
ry	-9.55113
pe	-9.55165
▁rise	-9.55612
▁wealth	-9.55758
▁Saturday	-9.55874
▁Though	-9.55874
▁straight	-9.55874
▁appointment	-9.55875
▁Today	-9.55898
▁stolen	-9.56001
▁filled	-9.56109
▁breath	-9.56143
▁correct	-9.5616
▁color	-9.56161
▁count	-9.56318
▁spoken	-9.56462
▁major	-9.56806
▁fortune	-9.56818
▁studies	-9.56818
▁shut	-9.56821
▁foolish	-9.56823
▁service	-9.57118
▁sweet	-9.57123
▁smell	-9.5713
▁heat	-9.5717
▁hearing	-9.57452
▁loved	-9.57531
ta	-9.57602
▁workers	-9.57721
▁trade	-9.5777
▁weekend	-9.578
▁beer	-9.57858
out	-9.57912
▁th	-9.58137
ine	-9.58339
▁watched	-9.58674
▁rice	-9.58733
▁members	-9.58813
▁condition	-9.5905
▁field	-9.59079
▁rains	-9.5919
1	-9.59262
▁miles	-9.59285
ance	-9.59607
▁absence	-9.59702
▁spread	-9.59702
▁stock	-9.59702
▁laid	-9.59705
▁Kate	-9.59706
▁hungry	-9.59708
▁scene	-9.59735
ous	-9.59736
▁shirt	-9.59849
▁single	-9.59926
ac	-9.60124
▁rainy	-9.60524
▁fond	-9.60683
▁salt	-9.60683
▁appearance	-9.60688
▁low	-9.60776
▁However	-9.61044
▁laughed	-9.61048
▁apple	-9.61412
▁murder	-9.61601
giving	-9.61673
▁economy	-9.61673
▁grandmother	-9.61673
▁science	-9.61673
▁terrible	-9.61673
▁thief	-9.61673
▁guess	-9.61673
▁Fuji	-9.61673
▁soccer	-9.61674
▁experiment	-9.61674
ir	-9.6181
▁anybody	-9.61952
z	-9.6228
▁whom	-9.62427
▁express	-9.62501
▁silent	-9.62553
▁conversation	-9.62673
▁picnic	-9.62673
▁ashamed	-9.62673
hile	-9.62675
▁gate	-9.62676
▁Hav	-9.62677
▁useful	-9.6272
▁ate	-9.62746
age	-9.62929
▁painted	-9.62951
▁cross	-9.62975
▁cooking	-9.63049
▁Re	-9.63181
▁prices	-9.63311
▁accepted	-9.63364
et	-9.63381
▁nor	-9.63667
▁risk	-9.63683
▁rent	-9.63692
▁familiar	-9.63758
▁100	-9.63763
▁soup	-9.63938
▁effect	-9.64111
ty	-9.64419
▁ended	-9.64681
▁birth	-9.64699
▁Christmas	-9.64703
▁marriage	-9.64703
▁particular	-9.64703
▁ease	-9.64704
▁beginning	-9.64709
▁blood	-9.64735
▁Fro	-9.64738
▁granted	-9.64764
▁spit	-9.64829
▁lies	-9.64887
▁ride	-9.64917
▁noon	-9.65183
▁animal	-9.65184
▁stranger	-9.65262
▁feelings	-9.65266
▁pictures	-9.65281
side	-9.65662
▁absorb	-9.65734
▁earlier	-9.65734
▁salary	-9.65734
▁advised	-9.65864
▁map	-9.65898
▁laughing	-9.66017
ant	-9.66037
▁owe	-9.66041
▁plays	-9.66527
▁board	-9.66568
▁quick	-9.6666
▁slow	-9.66685
▁lecture	-9.66735
▁France	-9.66776
▁museum	-9.66776
▁sold	-9.66785
▁aim	-9.66804
▁program	-9.66858
▁supposed	-9.66956
▁depends	-9.67017
▁temper	-9.67058
▁sentence	-9.67276
▁Americans	-9.6729
ie	-9.67296
▁Sha	-9.67311
un	-9.67787
▁consist	-9.67822
▁example	-9.67829
▁hall	-9.67831
▁aunt	-9.67844
▁size	-9.67867
ight	-9.6795
ling	-9.68172
▁Mi	-9.68173
▁listening	-9.6827
▁shower	-9.6875
▁fifty	-9.68892
▁probabl	-9.68893
▁importance	-9.68895
▁favorite	-9.689
▁politician	-9.68902
▁issue	-9.69001
▁tend	-9.69124
▁arms	-9.69466
▁grass	-9.69585
▁form	-9.69877
▁wash	-9.69884
▁courage	-9.6996
▁Brown	-9.69968
▁Turn	-9.69968
▁dishes	-9.69986
▁factory	-9.70006
▁letters	-9.70012
▁tie	-9.70124
▁allow	-9.70601
▁badly	-9.70795
▁laugh	-9.7093
▁luck	-9.7094
▁youth	-9.70975
▁rude	-9.71043
▁bottle	-9.71055
▁sugar	-9.71055
▁gentleman	-9.71059
▁refused	-9.71181
ped	-9.71186
▁skiing	-9.71313
▁meal	-9.7143
ful	-9.7145
▁saved	-9.71475
▁loves	-9.71648
▁poem	-9.71661
ck	-9.71951
▁gives	-9.72038
▁German	-9.72038
▁wide	-9.72092
▁progress	-9.72144
▁harm	-9.72153
▁choice	-9.72154
▁policy	-9.72154
▁society	-9.72154
▁plans	-9.72305
▁flying	-9.7252
per	-9.72923
▁flat	-9.73154
rs	-9.73238
▁kitchen	-9.73265
▁knife	-9.73265
▁roof	-9.73265
▁Everything	-9.73265
▁elected	-9.73265
▁excited	-9.73265
▁accused	-9.73277
▁weeks	-9.73321
▁avoid	-9.73391
▁passengers	-9.73455
▁skin	-9.73594
▁manager	-9.73699
▁wearing	-9.73758
▁younger	-9.7378
▁doll	-9.74017
▁hang	-9.74086
▁ordered	-9.74157
▁conduct	-9.74347
▁climate	-9.74388
▁guitar	-9.74388
▁instead	-9.74388
▁tongue	-9.74388
▁various	-9.74388
▁talent	-9.74391
▁Make	-9.74406
▁immediately	-9.74416
▁houses	-9.74581
▁believed	-9.74897
ily	-9.74908
▁farm	-9.75046
me	-9.75062
▁...	-9.75077
▁borrow	-9.75117
▁quarrel	-9.7522
▁ring	-9.75307
ad	-9.75368
▁except	-9.75428
▁agreed	-9.75444
▁Canada	-9.75525
▁disease	-9.75525
▁understood	-9.75525
▁wild	-9.75525
▁taught	-9.75525
▁pond	-9.75525
▁composition	-9.75526
▁difficulties	-9.75576
▁Ma	-9.75678
▁control	-9.75734
▁deeply	-9.75742
▁remained	-9.75758
▁persuade	-9.7577
▁talks	-9.76039
▁pale	-9.76108
▁rid	-9.7614
▁promised	-9.76143
▁state	-9.76223
▁speed	-9.76367
▁share	-9.76391
▁papers	-9.7655
▁accustom	-9.76674
▁Chinese	-9.76674
▁President	-9.76674
▁pleasant	-9.76674
▁teeth	-9.76674
▁seldom	-9.76675
▁OK	-9.76677
▁golf	-9.76722
▁glasses	-9.76747
▁rang	-9.76751
▁social	-9.76795
▁fashion	-9.76836
▁climb	-9.77129
led	-9.7713
▁facts	-9.77243
turned	-9.77323
rew	-9.774
id	-9.77473
▁clouds	-9.77507
▁appreciate	-9.77515
▁welcome	-9.77521
ma	-9.77745
▁cool	-9.77765
▁China	-9.77837
▁drunk	-9.77837
▁explanation	-9.77837
▁memory	-9.77837
▁stories	-9.77837
▁typhoon	-9.77837
▁theater	-9.77848
▁War	-9.77894
ko	-9.77945
▁teaching	-9.78067
ca	-9.78084
▁appeared	-9.78176
▁taste	-9.78283
▁type	-9.78386
▁weak	-9.78555
▁rock	-9.78585
▁explain	-9.78608
▁crowded	-9.78618
▁fight	-9.78722
▁nobody	-9.79013
▁middle	-9.79014
▁Nancy	-9.79014
▁somewhere	-9.79026
▁castle	-9.79035
▁object	-9.79283
▁airplane	-9.79611
▁Mos	-9.79652
▁forest	-9.79708
▁picked	-9.79765
va	-9.79774
▁fair	-9.79972
▁perfect	-9.80087
ke	-9.80132
▁flood	-9.80204
▁responsible	-9.80204
▁opportunity	-9.80204
▁forgot	-9.80207
▁secretary	-9.80225
▁engaged	-9.80247
▁treated	-9.80529
▁allowed	-9.80748
▁gift	-9.81011
▁decide	-9.81094
▁calls	-9.81103
▁build	-9.8111
▁robbe	-9.81259
▁April	-9.81409
▁exactly	-9.81453
▁cancer	-9.8149
▁mad	-9.81495
▁eaten	-9.8152
▁Dr	-9.816
time	-9.81745
▁increase	-9.81921
na	-9.82144
▁mention	-9.8224
▁add	-9.82586
▁century	-9.82628
▁innocent	-9.82628
▁plenty	-9.82628
▁cried	-9.82629
▁stick	-9.82631
▁choose	-9.82631
▁headache	-9.82636
▁model	-9.82639
▁math	-9.82649
▁goods	-9.82791
▁w	-9.83091
▁healthy	-9.83291
▁nation	-9.83474
▁search	-9.83555
▁co	-9.83591
▁matters	-9.83851
▁political	-9.83863
▁stomach	-9.83863
▁excellent	-9.83863
▁local	-9.83863
▁further	-9.8387
▁suggested	-9.84007
▁Read	-9.8402
▁Yes	-9.84271
▁Las	-9.84501
am	-9.84548
▁dance	-9.84679
▁request	-9.84698
▁throw	-9.84805
▁legs	-9.84913
▁di	-9.84918
po	-9.8492
▁stars	-9.84934
▁attempt	-9.85113
▁contact	-9.85113
▁extreme	-9.85113
▁honor	-9.85113
▁blew	-9.85113
▁message	-9.85116
ff	-9.85133
▁guilty	-9.85161
▁guy	-9.85171
▁behave	-9.85177
▁apt	-9.85218
▁nose	-9.85236
▁begins	-9.85256
▁ex	-9.85259
do	-9.85262
▁fixed	-9.85479
▁ski	-9.85512
▁tastes	-9.85551
▁guests	-9.8559
▁complain	-9.85659
▁economic	-9.86004
▁mis	-9.86129
▁differ	-9.86371
xcuse	-9.86373
▁admit	-9.86375
▁incident	-9.86378
▁research	-9.86378
▁attitude	-9.86379
▁calm	-9.86379
▁occurred	-9.86381
▁addition	-9.86381
▁manners	-9.86409
▁style	-9.86433
▁forced	-9.8668
▁dressed	-9.86723
▁card	-9.86763
▁following	-9.86914
ions	-9.87104
▁step	-9.87129
▁hate	-9.87175
▁damage	-9.87344
▁pencil	-9.87344
▁answered	-9.87377
▁depend	-9.87403
ally	-9.8754
▁hung	-9.87555
▁knock	-9.87661
▁truck	-9.87661
▁reply	-9.87661
▁entrance	-9.87661
▁space	-9.87665
▁contract	-9.87676
▁discussion	-9.87684
▁dry	-9.87688
▁greatly	-9.87813
▁aware	-9.88078
tic	-9.88087
▁fle	-9.88491
▁cover	-9.88567
▁Ho	-9.8857
▁method	-9.8866
▁continue	-9.88701
tion	-9.88747
▁sharp	-9.88857
▁Hokkaido	-9.88959
▁obey	-9.88959
▁vain	-9.88959
▁wake	-9.88965
▁disappointed	-9.88994
▁actor	-9.8905
▁third	-9.89067
▁apply	-9.89193
cu	-9.89196
▁personal	-9.89298
ge	-9.89597
▁lead	-9.89607
▁simple	-9.89628
▁acted	-9.89697
▁beach	-9.89831
▁finding	-9.89975
▁plants	-9.8999
▁cheap	-9.90203
▁baggage	-9.90275
▁capital	-9.90275
▁captain	-9.90275
▁temperature	-9.90275
▁stage	-9.90275
▁election	-9.90276
▁apartment	-9.90285
way	-9.90292
▁hole	-9.90298
▁ears	-9.90669
No	-9.90901
▁bar	-9.90905
▁bell	-9.90946
he	-9.90984
▁lovely	-9.91113
▁lines	-9.91206
▁leader	-9.91411
▁rained	-9.91554
▁ourselves	-9.91608
▁stupid	-9.91608
▁influence	-9.91612
ite	-9.91618
▁classroom	-9.91625
▁Good	-9.91643
▁mountains	-9.91654
▁Although	-9.91654
▁woods	-9.91685
▁aside	-9.91732
▁greatest	-9.91829
▁speaker	-9.91862
▁higher	-9.92134
▁missing	-9.92266
▁buying	-9.92373
▁Friday	-9.9296
▁hobby	-9.9296
▁lazy	-9.9296
▁nurse	-9.9296
▁superior	-9.9296
▁supper	-9.9296
▁hurried	-9.9296
▁Something	-9.9296
▁football	-9.9296
▁spot	-9.92962
▁glance	-9.92964
▁childhood	-9.92975
▁sweater	-9.9302
ake	-9.93034
▁latest	-9.93097
▁mathematics	-9.93125
▁taller	-9.93174
▁follows	-9.93266
▁cards	-9.93389
▁consider	-9.93569
▁becomes	-9.93724
▁listened	-9.93735
▁traveling	-9.93923
▁page	-9.94148
bo	-9.94176
ki	-9.94208
▁final	-9.94214
▁artist	-9.9431
▁list	-9.94314
▁According	-9.9433
▁bottom	-9.9433
▁industry	-9.9433
▁period	-9.9433
▁pride	-9.9433
▁evidence	-9.9433
▁shape	-9.9433
▁silence	-9.94331
▁percent	-9.94331
▁Someone	-9.94346
▁fellow	-9.94352
▁below	-9.94501
▁appears	-9.94514
day	-9.95038
▁content	-9.95091
▁appear	-9.95121
▁ear	-9.95299
▁fix	-9.95315
▁require	-9.95401
▁escape	-9.95417
ga	-9.955
▁detail	-9.95521
▁N	-9.95525
▁pieces	-9.957
▁gold	-9.9571
▁convenient	-9.95718
▁narrow	-9.95718
▁wedding	-9.95719
▁Stop	-9.95719
▁professor	-9.9572
▁department	-9.95722
▁butter	-9.95742
▁Leave	-9.95779
▁shy	-9.95782
▁pulled	-9.96047
▁considered	-9.96134
▁climbed	-9.96208
▁prepared	-9.96223
▁Thanks	-9.96284
▁meals	-9.96417
tter	-9.96473
▁admire	-9.96693
▁engine	-9.96718
▁jump	-9.96721
▁com	-9.96735
▁loud	-9.9694
▁kinds	-9.97088
▁environment	-9.9709
▁George	-9.97127
▁current	-9.97127
▁occasion	-9.97127
▁international	-9.97127
▁empty	-9.97129
▁fallen	-9.97187
▁Ann	-9.97199
▁according	-9.97393
▁inside	-9.9746
▁escaped	-9.9748
▁smiled	-9.97615
red	-9.9771
ot	-9.97768
▁excuse	-9.98073
▁raise	-9.98242
no	-9.9838
▁liked	-9.98448
de	-9.98539
▁blind	-9.98556
▁crazy	-9.98556
▁smart	-9.98556
▁somebody	-9.98556
▁actress	-9.98561
▁pair	-9.98563
▁sake	-9.98565
▁reservation	-9.98584
▁Miss	-9.98589
em	-9.98592
▁center	-9.98604
▁gun	-9.98773
▁fat	-9.9883
▁asking	-9.98961
▁explained	-9.99052
▁tickets	-9.99091
▁J	-9.99426
▁attended	-9.99426
▁successful	-9.99539
▁complete	-9.99571
▁attack	-9.99597
um	-9.99662
▁schedule	-9.99681
▁turns	-9.99717
▁pocket	-9.99861
▁member	-9.99879
▁brothers	-9.99962
▁drinks	-9.99984
▁access	-10
▁false	-10
▁politics	-10
▁struck	-10
▁vote	-10
▁thick	-10.0001
▁chairman	-10.0002
shi	-10.0032
▁added	-10.0049
▁Hi	-10.005
▁force	-10.0058
▁yours	-10.006
▁led	-10.0077
▁followed	-10.0084
▁wood	-10.0098
▁Of	-10.0105
2	-10.0106
▁languages	-10.0108
▁diet	-10.0109
▁needed	-10.0111
ward	-10.0116
▁brave	-10.0135
drew	-10.0137
▁ceremony	-10.0148
▁credit	-10.0148
▁criminal	-10.0148
▁presence	-10.0148
▁suspect	-10.0148
▁battle	-10.0148
▁anywhere	-10.0149
▁quality	-10.0153
▁musician	-10.0157
▁con	-10.0158
▁event	-10.0169
ither	-10.0176
▁mayor	-10.0186
▁jumped	-10.019
▁pre	-10.0193
ka	-10.0195
▁rely	-10.0197
▁noticed	-10.0216
da	-10.0239
▁treat	-10.0243
ud	-10.0248
▁sail	-10.0256
▁paint	-10.0257
▁holidays	-10.0271
▁cast	-10.0294
▁idle	-10.0296
▁Australia	-10.0297
▁Spanish	-10.0297
▁genius	-10.0297
▁June	-10.0297
▁soft	-10.0297
▁plain	-10.0297
▁available	-10.0298
▁wallet	-10.0299
▁actually	-10.0299
▁using	-10.0323
▁meters	-10.0347
fi	-10.0368
▁Young	-10.0378
▁shock	-10.0407
▁mark	-10.041
▁teach	-10.041
▁Mrs	-10.0411
▁exchange	-10.0416
▁visiting	-10.043
▁culture	-10.044
▁prove	-10.0443
▁moving	-10.0448
▁Water	-10.0448
▁cherry	-10.0448
▁rope	-10.0448
▁sales	-10.0449
▁button	-10.0449
▁exist	-10.0449
▁Time	-10.0454
▁suffering	-10.0466
▁burned	-10.0467
ba	-10.0472
▁classmates	-10.0479
▁thinks	-10.048
▁bother	-10.0502
les	-10.0552
▁knowing	-10.0554
▁Whe	-10.0557
▁compare	-10.0574
▁cats	-10.0575
▁cloth	-10.0576
ring	-10.0588
▁Ha	-10.0592
▁dis	-10.0596
▁manner	-10.06
▁handle	-10.06
▁Africa	-10.0602
▁reputation	-10.0602
▁slept	-10.0602
▁arrested	-10.0606
▁guard	-10.0606
▁involved	-10.0608
▁burning	-10.0616
▁original	-10.0617
▁wet	-10.0621
▁bare	-10.0641
om	-10.0697
▁games	-10.07
ism	-10.0749
▁sale	-10.0757
▁White	-10.0758
▁essential	-10.0758
▁average	-10.0758
▁statement	-10.076
▁pity	-10.0762
▁fever	-10.0763
▁acquainted	-10.0763
▁spare	-10.0764
▁product	-10.0764
▁ra	-10.0882
▁introduce	-10.0886
▁accord	-10.0887
▁changes	-10.0895
▁Any	-10.0901
▁feels	-10.0904
▁De	-10.0917
▁Few	-10.0917
▁Yesterday	-10.0917
▁dentist	-10.0917
▁modern	-10.0917
▁nervous	-10.0917
▁appeal	-10.0917
▁extent	-10.0917
▁cash	-10.0917
▁brush	-10.0917
▁products	-10.0918
▁comfortable	-10.0918
▁debt	-10.0925
▁R	-10.0929
▁scolded	-10.0931
▁feed	-10.0932
▁Rome	-10.0939
ow	-10.0945
▁insisted	-10.0946
▁realized	-10.0946
▁discussed	-10.0951
▁honesty	-10.0953
▁clearly	-10.0962
▁washing	-10.0963
▁dare	-10.0986
▁happens	-10.099
▁grown	-10.099
▁costs	-10.1035
▁fill	-10.1039
ish	-10.1042
▁apologize	-10.1046
▁custom	-10.1073
▁author	-10.1077
▁labor	-10.1078
▁conference	-10.1078
▁furniture	-10.1078
▁similar	-10.1078
▁double	-10.1078
▁kick	-10.1078
▁circumstances	-10.1079
▁Italy	-10.108
▁daily	-10.108
▁responsibility	-10.1081
▁arrival	-10.1081
▁dirty	-10.1082
▁affair	-10.1082
▁Sorry	-10.1085
▁capable	-10.1089
▁lesson	-10.1094
▁dollar	-10.1097
▁larger	-10.111
▁raised	-10.1114
▁seats	-10.1115
▁complaining	-10.1117
▁meant	-10.1119
▁ways	-10.1156
ating	-10.1161
ber	-10.1171
▁soldiers	-10.1172
P	-10.1186
▁lock	-10.1212
T	-10.123
▁eager	-10.123
▁First	-10.1242
▁length	-10.1242
▁mild	-10.1242
▁strike	-10.1242
▁valuable	-10.1242
▁Kobe	-10.1243
▁Taro	-10.1243
▁scientist	-10.1248
▁belong	-10.1256
ut	-10.1263
▁seriously	-10.127
▁locked	-10.1283
▁crossing	-10.1292
▁draw	-10.1308
▁repair	-10.1338
end	-10.1366
▁lift	-10.1368
▁press	-10.1371
▁career	-10.1383
0.	-10.1384
▁pro	-10.1395
▁belongs	-10.1402
▁affairs	-10.1405
▁applied	-10.1409
▁contrary	-10.1409
▁generation	-10.1409
▁independent	-10.1409
▁Jones	-10.1409
▁court	-10.1409
▁worried	-10.1409
▁operation	-10.1409
▁sang	-10.141
▁sum	-10.1417
▁kid	-10.1418
▁h	-10.1471
▁customers	-10.1497
▁neighbors	-10.1536
▁demand	-10.1549
wa	-10.1553
ard	-10.1557
▁self	-10.1578
▁Hawaii	-10.1579
▁communicate	-10.1579
▁deprive	-10.1579
▁exciting	-10.1579
▁literature	-10.1579
▁pianist	-10.1579
▁pretend	-10.1579
▁humor	-10.1579
▁soul	-10.1579
▁Was	-10.158
▁copy	-10.1582
▁recognized	-10.1593
▁lucky	-10.1597
ier	-10.1599
lent	-10.1656
▁fed	-10.1666
▁shoulder	-10.1666
▁sons	-10.1667
▁50	-10.1678
line	-10.168
▁friendly	-10.169
ittle	-10.1695
▁Has	-10.1698
ug	-10.1706
▁pull	-10.171
ia	-10.1718
▁fence	-10.1751
▁invitation	-10.1751
▁adapt	-10.1751
▁contest	-10.1751
▁supply	-10.1751
▁lion	-10.1753
▁planning	-10.1756
▁worn	-10.1781
▁delayed	-10.1785
▁intended	-10.179
ho	-10.1813
▁advanced	-10.1815
▁crossed	-10.1821
▁degrees	-10.1868
Yes	-10.1871
▁expenses	-10.1885
▁per	-10.1886
▁apart	-10.1888
▁realize	-10.1895
,000	-10.1897
▁desire	-10.1905
▁drove	-10.1926
▁innocence	-10.1926
▁intelligent	-10.1926
▁application	-10.1926
▁neighborhood	-10.1927
▁admitted	-10.1927
▁diary	-10.1928
▁safety	-10.1928
▁financial	-10.1928
▁suggestion	-10.193
▁national	-10.193
▁wears	-10.1931
▁growth	-10.1933
ened	-10.1949
▁settled	-10.195
▁demanded	-10.1969
▁repaired	-10.197
▁certainly	-10.197
▁Un	-10.1986
▁points	-10.1991
▁fog	-10.1992
▁places	-10.2039
C	-10.2046
▁claim	-10.2062
▁design	-10.2064
You	-10.2068
old	-10.2075
▁praise	-10.2079
▁forty	-10.208
▁lately	-10.2085
▁rare	-10.2103
▁Minister	-10.2105
▁associate	-10.2105
▁level	-10.2105
▁resemble	-10.2105
▁divide	-10.2105
▁noisy	-10.2105
▁shook	-10.2105
▁criticism	-10.2105
▁otherwise	-10.2105
▁cities	-10.2105
▁bench	-10.2106
▁consideration	-10.2107
▁enable	-10.2107
▁pour	-10.2119
".	-10.2122
▁gathered	-10.2124
▁based	-10.2124
▁article	-10.2125
▁bow	-10.2131
▁faster	-10.215
ick	-10.2161
▁stamps	-10.2209
▁kill	-10.2216
▁falling	-10.2217
E	-10.2229
▁receive	-10.2231
What	-10.2231
M	-10.2231
cy	-10.2232
▁concern	-10.2246
▁intend	-10.2247
▁suppose	-10.2255
▁strength	-10.2266
▁gain	-10.227
▁bite	-10.2271
ster	-10.2286
▁diligent	-10.2287
▁distinguish	-10.2287
▁journey	-10.2287
▁private	-10.2287
▁Write	-10.2287
▁greet	-10.2287
▁vase	-10.2287
▁minister	-10.2287
▁patience	-10.2287
▁Life	-10.2287
▁tail	-10.2288
▁loose	-10.229
▁devoted	-10.2292
▁path	-10.2294
▁active	-10.2297
▁holds	-10.2308
▁finger	-10.2312
▁novels	-10.2316
▁opening	-10.2326
▁continued	-10.2336
▁sounds	-10.236
▁opinions	-10.2363
▁Ten	-10.2367
▁teachers	-10.2381
ack	-10.2386
men	-10.24
▁shows	-10.2422
▁roses	-10.2425
aking	-10.2426
▁wound	-10.2431
coming	-10.246
▁resulted	-10.2462
▁lessons	-10.2468
▁total	-10.247
▁Hurry	-10.2472
▁chicken	-10.2472
▁companies	-10.2472
▁solution	-10.2472
▁iron	-10.2472
▁dislike	-10.2472
▁individual	-10.2472
▁carelessness	-10.2474
▁Bring	-10.2474
▁lights	-10.2479
▁include	-10.2479
▁row	-10.248
▁None	-10.2483
▁remark	-10.2498
▁growing	-10.2541
lar	-10.2553
gi	-10.2553
▁crash	-10.2619
▁prevent	-10.262
▁actions	-10.2626
▁imagine	-10.2628
▁prepare	-10.265
▁Smoking	-10.2661
▁Tanaka	-10.2661
▁autumn	-10.2661
▁awoke	-10.2661
▁bomb	-10.2661
▁conclusion	-10.2661
▁eleven	-10.2661
▁evil	-10.2661
▁jacket	-10.2661
▁satisfactory	-10.2661
▁surface	-10.2661
▁description	-10.2661
▁losing	-10.2661
▁property	-10.2661
▁winning	-10.2662
▁calling	-10.267
be	-10.2676
▁sheep	-10.2678
▁skill	-10.268
▁goal	-10.2692
▁direction	-10.2693
▁pupils	-10.2708
▁discuss	-10.2778
▁prison	-10.281
▁thanks	-10.2836
▁severe	-10.2842
▁neck	-10.2851
▁thin	-10.2852
▁shame	-10.2852
▁chief	-10.2853
▁pollution	-10.2853
▁purse	-10.2853
▁sorrow	-10.2853
▁suitcase	-10.2853
▁supermarket	-10.2853
▁guide	-10.2853
▁role	-10.2853
▁lean	-10.2853
▁performance	-10.2853
▁Hold	-10.2853
▁Year	-10.2854
▁bike	-10.2854
▁Generally	-10.2855
▁teaches	-10.2858
▁absolutely	-10.2859
▁announced	-10.286
▁shelf	-10.286
▁wheel	-10.2862
▁Sa	-10.2863
▁discovered	-10.2866
▁hero	-10.2882
▁Po	-10.2923
▁term	-10.2959
▁ends	-10.2982
▁solved	-10.2986
▁regular	-10.3037
que	-10.3045
▁remain	-10.3048
▁protect	-10.3048
▁rabbit	-10.3049
▁silly	-10.3049
▁rising	-10.3049
▁dying	-10.3049
▁victory	-10.3049
▁notebook	-10.3049
▁Money	-10.3049
▁departure	-10.3049
▁huge	-10.3049
▁shake	-10.3049
▁normal	-10.3049
▁tower	-10.3051
▁denied	-10.3052
▁justice	-10.3054
▁More	-10.3055
▁nearest	-10.3061
▁largest	-10.3062
▁army	-10.3086
sh	-10.3089
▁accidents	-10.31
▁vegetables	-10.3108
ig	-10.3134
▁Co	-10.3158
▁crops	-10.3167
▁breaking	-10.3174
▁push	-10.3178
bu	-10.3186
▁Sundays	-10.3199
▁sl	-10.3219
▁blow	-10.3223
▁la	-10.3238
▁ambition	-10.3249
▁license	-10.3249
▁practical	-10.3249
▁scandal	-10.3249
▁zoo	-10.3249
▁shining	-10.3249
▁Price	-10.3249
▁mystery	-10.3249
▁forgive	-10.3249
▁native	-10.3249
▁freedom	-10.3249
▁medical	-10.3249
▁consult	-10.325
▁Should	-10.325
▁dust	-10.3251
▁invention	-10.3251
▁serve	-10.3261
▁pot	-10.3267
▁starts	-10.3273
▁affected	-10.3273
▁graduated	-10.3274
ved	-10.328
▁ta	-10.3286
▁classes	-10.329
▁command	-10.3292
▁increased	-10.3301
▁washed	-10.3328
▁tooth	-10.3336
▁Car	-10.3363
▁mo	-10.3369
our	-10.34
▁parts	-10.3402
▁remains	-10.3413
▁delay	-10.3413
▁India	-10.3415
efore	-10.3416
▁en	-10.3418
▁names	-10.3429
▁Su	-10.343
▁spell	-10.3433
▁recent	-10.3442
▁flu	-10.3449
▁Britain	-10.3453
▁Shakespeare	-10.3453
▁Three	-10.3453
▁dancing	-10.3453
▁heavily	-10.3453
▁photograph	-10.3453
▁score	-10.3453
▁statesman	-10.3453
▁loan	-10.3454
▁Prim	-10.3454
▁worst	-10.3454
▁regards	-10.3454
▁alarm	-10.3455
▁players	-10.3457
▁agreement	-10.3461
▁destroyed	-10.3463
▁objection	-10.3467
▁resources	-10.3471
▁sisters	-10.3472
O	-10.3474
▁warmer	-10.3479
▁port	-10.3493
▁brain	-10.3499
▁gained	-10.3499
▁prisoner	-10.3499
▁expense	-10.3501
▁blossoms	-10.3502
▁sport	-10.3502
▁borrowed	-10.3527
ill	-10.3528
ged	-10.3544
j	-10.3551
▁skirt	-10.3568
▁ma	-10.3571
ping	-10.3577
▁prepar	-10.3597
▁tour	-10.3621
▁flow	-10.3623
It	-10.3642
bi	-10.3644
▁polite	-10.3648
▁customs	-10.3657
▁surround	-10.3661
▁Happ	-10.3661
▁School	-10.3661
▁dawn	-10.3661
▁festival	-10.3661
▁impression	-10.3661
▁lonely	-10.3661
▁section	-10.3661
▁senior	-10.3661
▁sensitive	-10.3661
▁development	-10.3663
▁Day	-10.3667
▁north	-10.3668
▁balance	-10.3669
son	-10.3674
▁sofa	-10.3676
▁expression	-10.368
▁Germany	-10.3683
▁stealing	-10.3688
▁wishes	-10.3696
▁po	-10.3696
▁developed	-10.3701
▁introduced	-10.3709
▁cousin	-10.3711
▁profit	-10.3713
▁neighbor	-10.3714
▁trick	-10.3714
▁keeping	-10.3716
▁cases	-10.3735
▁expressed	-10.3752
D	-10.3764
▁computers	-10.384
land	-10.3866
▁cleared	-10.3869
▁threat	-10.3874
▁Boston	-10.3874
▁bloom	-10.3874
▁district	-10.3874
▁drank	-10.3874
▁staff	-10.3874
▁stairs	-10.3874
▁upstairs	-10.3874
▁video	-10.3874
▁expert	-10.3874
▁Work	-10.3874
▁awake	-10.3874
▁fought	-10.3874
▁bitter	-10.3875
▁south	-10.3875
▁electricity	-10.3875
▁appointed	-10.3879
▁Won	-10.3882
▁Meg	-10.3882
▁entirely	-10.3884
▁punished	-10.3887
ors	-10.3899
uring	-10.39
▁drawing	-10.3913
▁however	-10.3917
▁trains	-10.3937
▁alike	-10.394
▁smaller	-10.394
▁blamed	-10.396
▁newspapers	-10.3969
▁Ro	-10.3982
mi	-10.399
ran	-10.4005
gged	-10.4011
▁develop	-10.4019
▁writes	-10.402
▁arriv	-10.404
▁tight	-10.4041
ious	-10.405
over	-10.4055
▁invite	-10.406
▁roll	-10.4089
▁confidence	-10.4092
▁ordinary	-10.4092
▁virtue	-10.4092
▁Susan	-10.4092
▁track	-10.4092
▁keen	-10.4092
espec	-10.4092
▁begun	-10.4092
▁Station	-10.4092
▁scenery	-10.4093
▁temple	-10.4094
▁toilet	-10.4094
pi	-10.4095
▁200	-10.4097
▁V	-10.4104
▁mistaken	-10.4105
▁determined	-10.4107
one	-10.4112
▁bored	-10.4114
ex	-10.412
ep	-10.4127
▁employees	-10.4129
▁cloud	-10.4142
▁movement	-10.4156
▁Show	-10.4175
▁waves	-10.4175
fe	-10.4199
▁earns	-10.4201
▁pounds	-10.4211
▁holding	-10.4222
▁helping	-10.4243
ile	-10.425
▁relax	-10.4273
▁insist	-10.4279
N	-10.4283
▁wor	-10.4292
▁pan	-10.4297
▁rough	-10.4302
▁gentle	-10.4313
▁super	-10.4314
▁British	-10.4314
▁Mayuko	-10.4314
▁Spring	-10.4314
▁Watch	-10.4314
▁accommodate	-10.4314
▁belief	-10.4314
▁clerk	-10.4314
▁discount	-10.4314
▁easier	-10.4314
▁increasing	-10.4314
▁jam	-10.4314
▁Sometimes	-10.4314
▁data	-10.4314
▁frightened	-10.4314
▁funny	-10.4314
▁detective	-10.4314
▁stuff	-10.4314
▁slipped	-10.4314
▁emergency	-10.4315
▁treatment	-10.4316
▁friendship	-10.4318
▁belt	-10.4325
▁rarely	-10.4329
ning	-10.4329
▁west	-10.4342
▁typ	-10.4349
▁served	-10.4349
▁recovered	-10.4349
▁fighting	-10.4371
▁engineer	-10.4379
▁Con	-10.4379
go	-10.4414
ure	-10.4414
▁supplies	-10.4433
▁weigh	-10.4458
▁highly	-10.4459
▁limit	-10.45
▁improve	-10.4508
▁necessar	-10.453
▁correspond	-10.454
▁extra	-10.4541
▁communication	-10.4541
▁element	-10.4541
▁unhappy	-10.4541
▁desert	-10.4541
▁mood	-10.4541
▁nuclear	-10.4541
▁yellow	-10.4541
▁cream	-10.4542
▁woke	-10.4542
▁fame	-10.4542
▁poverty	-10.4542
▁crew	-10.4543
▁runner	-10.4543
▁handsome	-10.4543
▁scarce	-10.4548
▁brown	-10.4551
▁signal	-10.4553
▁proposed	-10.4553
▁established	-10.4554
▁lower	-10.4558
ble	-10.4563
▁praised	-10.4582
▁climbing	-10.4601
▁Du	-10.4632
▁pains	-10.4675
▁mere	-10.4686
▁approach	-10.4702
▁wo	-10.4707
hand	-10.4715
ially	-10.4719
▁plant	-10.472
▁insult	-10.4732
▁chose	-10.474
▁thoughts	-10.4751
▁kids	-10.4761
▁slight	-10.4762
▁branch	-10.4769
▁Birds	-10.4774
▁Suddenly	-10.4774
▁burglar	-10.4774
▁disaster	-10.4774
▁grief	-10.4774
▁ocean	-10.4774
▁surprising	-10.4774
▁contribute	-10.4774
▁textbook	-10.4774
▁twelve	-10.4774
▁delicious	-10.4774
▁translate	-10.4774
▁promotion	-10.4774
▁pressure	-10.4774
▁Soon	-10.4781
▁recovery	-10.4784
▁payment	-10.4785
▁disappeared	-10.4798
▁accompanie	-10.4798
▁delighted	-10.4803
▁Had	-10.4819
▁gl	-10.4824
suitable	-10.4845
▁spirit	-10.485
▁degree	-10.4852
▁egg	-10.486
▁fired	-10.4865
▁ac	-10.488
▁errors	-10.4918
▁Chris	-10.4926
work	-10.4933
▁songs	-10.4951
The	-10.4956
▁recommend	-10.4969
▁block	-10.4971
▁remarks	-10.4975
▁settle	-10.4979
▁steal	-10.4982
▁violin	-10.5011
▁cheer	-10.5011
▁slip	-10.5011
▁drama	-10.5011
▁Chicago	-10.5012
▁adventure	-10.5012
▁drowned	-10.5012
▁previous	-10.5012
▁refrain	-10.5012
▁relative	-10.5012
▁thunder	-10.5012
▁treasure	-10.5012
▁Judg	-10.5012
▁carpet	-10.5012
▁subway	-10.5012
▁authority	-10.5013
▁construction	-10.5014
▁candle	-10.5015
▁novelist	-10.5016
▁carries	-10.5017
▁understanding	-10.5018
▁500	-10.502
▁invented	-10.5022
▁edge	-10.5022
▁convinced	-10.503
▁warn	-10.5039
▁San	-10.504
▁informed	-10.5052
▁rights	-10.5059
▁doctors	-10.5062
ya	-10.5067
▁lots	-10.5071
▁forgotten	-10.5079
▁benefit	-10.5093
▁odd	-10.5093
proved	-10.5098
▁pie	-10.5124
ise	-10.5129
▁foreigner	-10.5132
▁cleaning	-10.5149
▁beating	-10.5156
▁foreigners	-10.5181
▁cap	-10.5183
▁kindly	-10.5192
▁sh	-10.5197
▁li	-10.5197
▁cleaned	-10.5198
tuck	-10.5199
▁figures	-10.5206
▁gu	-10.5209
▁inform	-10.521
and	-10.5217
▁approve	-10.5223
za	-10.5234
▁ink	-10.5243
▁entire	-10.5244
▁reflect	-10.525
▁persist	-10.5255
▁cruel	-10.5255
▁World	-10.5256
▁harvest	-10.5256
▁horizon	-10.5256
▁liberty	-10.5256
▁hesitate	-10.5256
▁Betty	-10.5256
▁debate	-10.5256
▁yard	-10.5256
▁laughter	-10.5256
▁March	-10.5256
▁simply	-10.5257
▁gradually	-10.5257
for	-10.5257
▁passport	-10.5257
▁effective	-10.5258
▁1,000	-10.526
▁production	-10.5261
▁shortage	-10.5262
▁note	-10.5262
▁throughout	-10.5267
▁Mom	-10.5278
▁Beth	-10.528
ph	-10.5282
▁Ask	-10.5283
▁oppose	-10.5287
▁safely	-10.5287
bout	-10.5288
▁warning	-10.529
▁cute	-10.5292
▁du	-10.5293
we	-10.5317
▁expectations	-10.5322
▁tied	-10.5329
▁sleepy	-10.5341
▁intention	-10.5343
▁import	-10.5343
▁curtain	-10.5344
▁selling	-10.5348
▁hoped	-10.5352
▁forth	-10.5356
ress	-10.54
ap	-10.5418
▁suffer	-10.5435
▁bi	-10.5435
rate	-10.5454
year	-10.546
▁sp	-10.5462
▁resign	-10.5463
▁passing	-10.5466
▁fingers	-10.5471
▁advise	-10.5474
▁rush	-10.5483
pelled	-10.5493
▁proper	-10.5494
▁Peter	-10.5506
▁Tuesday	-10.5506
▁anxiety	-10.5506
▁fifteen	-10.5506
▁forecast	-10.5506
▁grateful	-10.5506
▁impressed	-10.5506
▁mirror	-10.5506
▁monkey	-10.5506
▁precious	-10.5506
▁mercy	-10.5506
▁blanket	-10.5506
▁attractive	-10.5506
▁motion	-10.5506
ura	-10.5507
▁classical	-10.5515
▁frozen	-10.5518
▁abandoned	-10.552
▁Pro	-10.552
▁chill	-10.5522
▁east	-10.5522
▁ancient	-10.5524
▁Sit	-10.5525
▁former	-10.5528
▁fairly	-10.553
▁alcohol	-10.5535
▁Love	-10.5599
▁photo	-10.56
▁material	-10.5601
▁tape	-10.5641
ku	-10.5659
▁conditions	-10.5667
▁deals	-10.5668
ue	-10.5676
▁counts	-10.568
▁greater	-10.568
▁colors	-10.5681
becoming	-10.5697
▁11	-10.57
▁direct	-10.5702
▁windows	-10.571
▁recover	-10.571
▁sides	-10.5713
▁cope	-10.5718
▁reserve	-10.573
▁H	-10.5731
ized	-10.5744
part	-10.5751
▁12	-10.5752
ian	-10.5755
▁reasons	-10.5755
▁Recently	-10.5762
▁Students	-10.5762
▁complex	-10.5762
▁deserve	-10.5762
▁elevator	-10.5762
▁midnight	-10.5762
▁possess	-10.5762
▁resort	-10.5762
▁throat	-10.5762
▁dispute	-10.5762
▁acquaintance	-10.5762
▁relationship	-10.5762
▁committed	-10.5762
▁crack	-10.5762
▁Hard	-10.5763
▁boyfriend	-10.5763
▁earnest	-10.5763
▁square	-10.5764
▁raw	-10.5765
▁related	-10.5766
▁reality	-10.5767
▁Helen	-10.5769
▁rapidly	-10.5773
ify	-10.5773
▁taxes	-10.5775
▁dull	-10.5779
▁Call	-10.5779
▁Dad	-10.5783
▁retired	-10.5785
▁haste	-10.5786
▁collecting	-10.5787
▁events	-10.5795
▁suffered	-10.5804
▁r	-10.5819
▁completed	-10.5819
▁leading	-10.5821
▁worthy	-10.5822
▁complained	-10.5846
▁sour	-10.5857
▁Men	-10.5863
▁buildings	-10.5863
▁document	-10.5864
▁bone	-10.5864
▁error	-10.5865
▁Sam	-10.5882
▁charged	-10.5884
▁formed	-10.5893
▁wit	-10.5899
▁ba	-10.5906
Do	-10.5922
min	-10.593
▁presented	-10.5938
▁sw	-10.5938
▁boil	-10.5953
▁travels	-10.5954
▁15	-10.5956
ger	-10.5966
How	-10.5969
R	-10.5973
▁Asia	-10.5984
bye	-10.5985
▁faith	-10.5996
▁sc	-10.6
▁sweat	-10.6013
▁constant	-10.6013
ities	-10.6021
▁comfort	-10.6023
▁electric	-10.6024
▁occur	-10.6025
▁dish	-10.6025
▁alternative	-10.6025
▁basket	-10.6025
▁ceiling	-10.6025
▁generous	-10.6025
▁impatient	-10.6025
▁insurance	-10.6025
▁interfere	-10.6025
▁physics	-10.6025
▁principal	-10.6025
▁religion	-10.6025
▁stream	-10.6025
▁physical	-10.6025
▁basic	-10.6025
▁budget	-10.6025
▁ignorance	-10.6025
▁ignorant	-10.6025
▁broad	-10.6025
▁consent	-10.6026
▁replace	-10.6026
▁King	-10.6026
▁pipe	-10.6027
▁upset	-10.6028
▁July	-10.6028
▁bigger	-10.603
▁quarter	-10.6036
▁achieved	-10.604
room	-10.6044
▁file	-10.6052
▁improved	-10.6062
▁bent	-10.6081
▁bat	-10.6087
▁breaks	-10.6108
ture	-10.6118
▁saving	-10.6134
▁crop	-10.6136
▁height	-10.615
▁cooked	-10.6162
▁unusual	-10.6226
▁yield	-10.6254
▁stole	-10.6258
▁refuse	-10.6264
pped	-10.6277
ition	-10.6282
▁brief	-10.6283
▁bargain	-10.6295
▁community	-10.6295
▁deposit	-10.6295
▁essay	-10.6295
▁families	-10.6295
▁permission	-10.6295
▁region	-10.6295
▁shore	-10.6295
▁tiger	-10.6295
▁pool	-10.6295
▁bookstore	-10.6295
▁boring	-10.6296
▁instant	-10.6296
▁Yamada	-10.6296
▁amused	-10.6296
▁atmosphere	-10.6296
▁image	-10.6296
▁girlfriend	-10.6296
▁coward	-10.6297
▁doubtful	-10.6298
▁director	-10.63
▁Play	-10.6302
▁grave	-10.6302
▁Yumi	-10.6304
▁properly	-10.6308
all	-10.6313
▁hunger	-10.6317
▁attached	-10.6319
▁charming	-10.6323
▁aid	-10.6323
▁shouted	-10.6324
▁scared	-10.6325
everal	-10.633
▁details	-10.6334
▁blowing	-10.6336
▁useless	-10.6338
▁pages	-10.6339
▁cha	-10.6344
▁required	-10.6358
gotten	-10.6369
▁moral	-10.637
▁buses	-10.6372
su	-10.6382
▁contains	-10.6396
▁stamp	-10.6413
▁mile	-10.6414
▁soldier	-10.6414
▁streets	-10.6416
▁grade	-10.643
ative	-10.6436
fa	-10.6439
▁oranges	-10.6445
▁ache	-10.6448
▁Ba	-10.645
▁referr	-10.6467
▁dreams	-10.6468
ified	-10.6479
▁smells	-10.6482
▁forever	-10.6493
▁laws	-10.6499
▁worker	-10.6507
F	-10.6517
▁willing	-10.6533
ible	-10.6535
▁camp	-10.6542
▁cure	-10.6542
▁ho	-10.6543
▁answers	-10.6546
▁records	-10.6551
▁grows	-10.6562
qui	-10.6567
▁fl	-10.6568
▁Paul	-10.657
▁Great	-10.6573
▁activities	-10.6573
▁basketball	-10.6573
▁changing	-10.6573
▁cheese	-10.6573
▁disagree	-10.6573
▁estimate	-10.6573
▁jazz	-10.6573
▁jet	-10.6573
▁possibility	-10.6573
▁Alice	-10.6573
▁Diet	-10.6573
▁interview	-10.6573
▁flag	-10.6573
▁opposition	-10.6573
▁tough	-10.6573
▁accent	-10.6574
▁dash	-10.6574
▁variety	-10.6574
▁switch	-10.6574
▁comment	-10.6576
▁villagers	-10.6577
▁management	-10.6578
▁Help	-10.6582
▁marks	-10.6587
▁Say	-10.659
▁arranged	-10.6591
ably	-10.6596
▁Ka	-10.6599
▁band	-10.66
▁rushed	-10.6619
▁leads	-10.6633
▁falls	-10.6654
ear	-10.6654
ab	-10.6655
▁exams	-10.6662
ial	-10.6666
▁cheeks	-10.6672
ang	-10.6675
▁coins	-10.6677
▁pet	-10.6683
▁acting	-10.6695
▁candidate	-10.6696
▁ghost	-10.6697
▁shine	-10.6697
▁troubles	-10.6785
▁owner	-10.6787
▁addressed	-10.6788
▁touched	-10.6805
▁separate	-10.6826
▁tire	-10.6828
▁hid	-10.6828
▁strict	-10.6847
▁rapid	-10.6847
▁elder	-10.6849
ternal	-10.6859
▁Nagoya	-10.6859
▁Somebody	-10.6859
▁amazed	-10.6859
▁behalf	-10.6859
▁capacity	-10.6859
▁circle	-10.6859
▁entertain	-10.6859
▁leisure	-10.6859
▁reform	-10.6859
▁statue	-10.6859
▁chess	-10.6859
▁Open	-10.6859
▁organization	-10.6859
▁gaz	-10.6859
▁starting	-10.686
▁plate	-10.686
▁reward	-10.6861
atomic	-10.6861
▁tune	-10.6862
▁judgement	-10.6863
▁awful	-10.6865
▁tallest	-10.687
▁eats	-10.6874
▁deceived	-10.6874
▁unit	-10.6876
cal	-10.688
▁argued	-10.6882
ship	-10.6887
▁participate	-10.6889
ound	-10.6893
▁tourists	-10.6918
▁acts	-10.6919
▁damaged	-10.6931
▁interests	-10.6932
if	-10.6937
▁bags	-10.6948
ji	-10.6954
▁orange	-10.6992
▁pound	-10.6994
▁farmer	-10.7008
▁colder	-10.7009
▁strangers	-10.7022
▁officer	-10.7061
▁fo	-10.7078
▁charm	-10.7081
port	-10.7085
light	-10.712
▁tells	-10.7122
▁Ben	-10.7122
▁jokes	-10.7123
ral	-10.7127
▁Ta	-10.7127
▁compos	-10.7131
▁Mo	-10.7132
▁manag	-10.7133
by	-10.7134
▁guilt	-10.7142
▁cheerful	-10.7142
▁reli	-10.7143
▁heads	-10.7144
▁connect	-10.7144
▁25	-10.7151
▁avail	-10.7152
▁trans	-10.7152
▁commit	-10.7153
▁Pacific	-10.7153
▁Wait	-10.7153
▁Women	-10.7153
▁album	-10.7153
▁appetite	-10.7153
▁assignment	-10.7153
▁athlete	-10.7153
▁automobile	-10.7153
▁border	-10.7153
▁buried	-10.7153
▁crisis	-10.7153
▁delicate	-10.7153
▁devil	-10.7153
▁diamond	-10.7153
▁excitement	-10.7153
▁explosion	-10.7153
▁guarantee	-10.7153
▁indifferent	-10.7153
▁parcel	-10.7153
▁pilot	-10.7153
▁shadow	-10.7153
▁valley	-10.7153
▁Nara	-10.7154
▁liar	-10.7155
▁pure	-10.7155
▁trial	-10.7155
▁majority	-10.7157
▁Send	-10.7161
▁Ex	-10.7161
▁connection	-10.7162
▁exhausted	-10.7164
▁impose	-10.7164
▁parties	-10.7165
▁created	-10.7167
aring	-10.7177
▁cent	-10.7186
▁canceled	-10.7187
▁employed	-10.7188
▁produced	-10.719
▁painter	-10.7195
▁habits	-10.7209
▁clothing	-10.7211
▁paying	-10.7214
▁pop	-10.7239
▁horses	-10.7277
ide	-10.729
▁supplie	-10.7296
▁fan	-10.7311
▁hu	-10.7314
▁uses	-10.7331
▁checked	-10.737
▁drives	-10.7376
W	-10.7381
B	-10.7388
L	-10.7399
thirty	-10.74
That	-10.74
▁Ar	-10.74
mail	-10.7402
owed	-10.741
▁adjust	-10.7415
▁repeat	-10.7415
▁base	-10.7427
▁mess	-10.7445
▁process	-10.7453
▁parking	-10.7454
▁debts	-10.7455
▁Brian	-10.7456
▁Lucy	-10.7456
▁Picasso	-10.7456
▁creature	-10.7456
▁function	-10.7456
▁motorcycle	-10.7456
▁oblige	-10.7456
▁overcome	-10.7456
▁suicide	-10.7456
▁truly	-10.7456
▁voyage	-10.7456
▁float	-10.7456
▁abound	-10.7456
▁South	-10.7456
▁characteristic	-10.7456
▁Spain	-10.7457
▁Compare	-10.7457
▁towel	-10.7457
▁punctual	-10.7457
▁sand	-10.7457
▁salesman	-10.7458
▁hometown	-10.7458
▁discovery	-10.7462
▁wheat	-10.7466
▁processor	-10.7468
▁folded	-10.7471
▁tale	-10.7472
▁adopted	-10.7474
▁counter	-10.7479
▁despise	-10.7479
▁annoyed	-10.7483
▁rage	-10.75
▁union	-10.75
▁blown	-10.7513
▁quietly	-10.7515
▁pushed	-10.7519
▁finance	-10.753
ami	-10.7543
val	-10.7564
▁Almost	-10.7578
▁chances	-10.7581
▁relations	-10.7595
▁poems	-10.7595
▁La	-10.7618
▁customer	-10.7622
▁refer	-10.7627
▁imp	-10.7629
yo	-10.7654
▁imports	-10.7655
▁fields	-10.7656
▁promises	-10.7682
▁paintings	-10.7691
▁collect	-10.7695
▁protest	-10.7727
king	-10.7732
ied	-10.7736
▁rescue	-10.7736
▁smooth	-10.7757
▁exact	-10.7757
▁cr	-10.7758
▁minor	-10.7767
▁poison	-10.7768
ize	-10.7768
▁University	-10.7769
▁drowning	-10.7769
▁junior	-10.7769
▁luggage	-10.7769
▁obvious	-10.7769
▁respond	-10.7769
▁servant	-10.7769
▁smiling	-10.7769
▁swallow	-10.7769
▁uneasy	-10.7769
▁utter	-10.7769
▁Walk	-10.7769
▁chocolate	-10.7769
▁urgent	-10.7769
▁sunny	-10.7769
▁fancy	-10.7769
▁fox	-10.7769
▁assume	-10.777
▁technology	-10.777
▁Fred	-10.7772
▁standard	-10.7772
▁passage	-10.7775
uc	-10.7779
▁topic	-10.7779
▁reluctant	-10.7781
▁published	-10.7782
▁directly	-10.7783
bide	-10.779
▁chi	-10.7793
▁sub	-10.7819
▁wages	-10.7828
▁suits	-10.7843
▁nations	-10.7861
▁Lo	-10.7862
▁funds	-10.7865
▁shoulders	-10.7877
▁factor	-10.7884
▁rat	-10.7894
ey	-10.79
▁notes	-10.7903
▁Li	-10.7911
▁Ne	-10.7937
▁earn	-10.7942
▁hopes	-10.7956
▁fare	-10.7974
▁cakes	-10.7978
lan	-10.7991
▁se	-10.8
▁observe	-10.8005
▁tricks	-10.801
erry	-10.8013
▁Me	-10.8019
▁telephoned	-10.8021
ties	-10.8033
▁shown	-10.8037
▁accomplish	-10.8048
▁delight	-10.8051
▁bore	-10.8058
▁divorce	-10.8058
▁demands	-10.807
▁unexpected	-10.8079
etween	-10.809
hoose	-10.8091
▁brand	-10.8091
▁expand	-10.8091
▁February	-10.8091
▁Greek	-10.8091
▁Instead	-10.8091
▁January	-10.8091
▁Narita	-10.8091
▁Olympic	-10.8091
▁Remember	-10.8091
▁Unfortunately	-10.8091
▁Wood	-10.8091
▁activity	-10.8091
▁altogether	-10.8091
▁background	-10.8091
▁cough	-10.8091
▁kilometers	-10.8091
▁opponent	-10.8091
▁robot	-10.8091
▁splendid	-10.8091
▁stadium	-10.8091
▁translation	-10.8091
▁universe	-10.8091
▁violence	-10.8091
▁welfare	-10.8091
▁wisdom	-10.8091
▁Judy	-10.8091
▁troops	-10.8091
▁leather	-10.8091
▁parade	-10.8091
▁estate	-10.8091
▁Business	-10.8091
▁juice	-10.8091
▁mouse	-10.8091
▁beef	-10.8091
▁racket	-10.8091
▁overseas	-10.8092
▁Western	-10.8092
▁temptation	-10.8092
▁Honesty	-10.8093
▁anymore	-10.8093
▁conscious	-10.8097
▁fasten	-10.8102
▁dismissed	-10.8104
▁acquired	-10.8107
▁les	-10.8108
▁Speaking	-10.8116
▁hide	-10.812
▁cutting	-10.8121
▁perfectly	-10.8123
▁wealthy	-10.8132
▁observed	-10.8133
▁approaching	-10.8134
▁beings	-10.8147
the	-10.8159
▁fails	-10.816
▁desired	-10.8162
▁wounded	-10.8163
▁seize	-10.8171
▁turning	-10.8182
▁twins	-10.819
▁stops	-10.8207
▁produce	-10.8232
ice	-10.8253
▁cigarette	-10.8263
▁trusted	-10.8264
▁respected	-10.8268
▁parent	-10.8273
▁site	-10.831
▁beg	-10.8317
ern	-10.8336
took	-10.8338
▁Eat	-10.8347
▁bears	-10.8348
▁fee	-10.8356
iar	-10.8368
▁directions	-10.837
▁deliver	-10.8372
back	-10.8374
▁affect	-10.8378
▁interrupt	-10.8383
▁decline	-10.8392
▁measure	-10.8395
of	-10.8403
▁grounds	-10.8405
▁Ko	-10.8423
▁Emmet	-10.8425
▁Nowadays	-10.8425
▁celebrate	-10.8425
▁declare	-10.8425
▁embarrassed	-10.8425
▁purchase	-10.8425
▁refrigerator	-10.8425
▁silver	-10.8425
▁tunnel	-10.8425
▁violent	-10.8425
▁Green	-10.8425
▁Next	-10.8425
▁scientific	-10.8425
▁steak	-10.8425
▁bump	-10.8425
▁swimmer	-10.8425
▁flies	-10.8426
▁im	-10.8426
▁host	-10.8426
▁verb	-10.8427
▁urge	-10.8427
▁reliable	-10.8427
▁personality	-10.8427
▁prime	-10.843
▁Johnson	-10.843
▁regardless	-10.8433
▁darkness	-10.8435
▁gray	-10.8435
▁dispos	-10.8436
▁professional	-10.8439
▁dozen	-10.8441
▁cheaper	-10.8443
▁stu	-10.8447
▁loudly	-10.8453
▁critical	-10.8458
▁widely	-10.8461
▁toast	-10.8469
▁burn	-10.8469
▁chosen	-10.8479
▁musical	-10.848
50	-10.8487
oo	-10.851
▁closely	-10.8513
▁passion	-10.8513
▁riding	-10.8514
llness	-10.8523
uit	-10.8527
▁visitors	-10.8531
▁congratulate	-10.8533
▁sights	-10.8535
▁concentrate	-10.8556
chi	-10.857
▁ages	-10.8573
▁attending	-10.8578
▁measures	-10.8587
▁Los	-10.8591
▁causes	-10.8603
low	-10.8605
▁pin	-10.8611
▁CD	-10.8612
▁tear	-10.8616
▁caus	-10.8619
▁views	-10.8629
▁materials	-10.8639
▁web	-10.8641
▁spirits	-10.8656
▁groups	-10.8673
▁helps	-10.8681
ola	-10.8687
▁employ	-10.8701
▁fate	-10.8711
▁Ra	-10.8716
▁suggest	-10.8722
right	-10.8725
▁extend	-10.8728
▁mix	-10.8728
▁ban	-10.8737
▁bark	-10.8744
▁roads	-10.8745
▁print	-10.8757
▁graduate	-10.8761
▁dear	-10.8764
▁bribe	-10.8769
▁defend	-10.8769
▁resist	-10.8769
▁Ki	-10.8769
▁tip	-10.8769
▁magic	-10.8769
iddle	-10.8769
▁Listen	-10.8769
▁Tomorrow	-10.8769
▁accurate	-10.8769
▁challenge	-10.8769
▁conflict	-10.8769
▁convenience	-10.8769
▁existence	-10.8769
▁fifth	-10.8769
▁fortunate	-10.8769
▁heaven	-10.8769
▁ladder	-10.8769
▁located	-10.8769
▁sample	-10.8769
▁sank	-10.8769
▁scratch	-10.8769
▁split	-10.8769
▁Robert	-10.8769
▁eighteen	-10.8769
▁focus	-10.8769
▁rival	-10.8769
▁summit	-10.8769
▁feature	-10.8769
▁grand	-10.8769
▁disappointment	-10.877
▁bullet	-10.877
▁Human	-10.877
▁assistant	-10.877
▁copies	-10.877
▁indeed	-10.8771
▁steady	-10.8771
▁wings	-10.8771
▁bold	-10.8771
▁Dick	-10.8772
▁allowance	-10.8772
▁bud	-10.8772
▁remarkable	-10.8774
▁10,000	-10.8774
▁Maybe	-10.8775
▁depressed	-10.8776
▁Cut	-10.8779
▁constantly	-10.8785
▁reasonable	-10.8789
▁relieved	-10.8789
▁billion	-10.8792
▁seeds	-10.8802
ural	-10.8809
▁setting	-10.8811
▁Ca	-10.8813
ori	-10.8833
▁appropriate	-10.8848
▁su	-10.885
▁burnt	-10.8856
cent	-10.8885
▁nerves	-10.8905
▁reads	-10.8919
▁ruin	-10.8922
hes	-10.8937
▁cigarettes	-10.8939
▁Moder	-10.8956
▁pa	-10.896
▁relation	-10.8965
▁shoe	-10.8967
place	-10.9066
put	-10.9078
▁stress	-10.9085
▁cancel	-10.9085
K	-10.9092
▁retire	-10.9093
▁derive	-10.9094
▁recognize	-10.9095
▁predict	-10.9114
▁absolute	-10.9115
▁scientists	-10.9115
ama	-10.9123
▁selfish	-10.9126
▁Finally	-10.9126
▁Jesus	-10.9126
▁Lincoln	-10.9126
▁Thursday	-10.9126
▁Yokohama	-10.9126
▁admission	-10.9126
▁astonished	-10.9126
▁chemistry	-10.9126
▁choosing	-10.9126
▁cliff	-10.9126
▁companion	-10.9126
▁complicated	-10.9126
▁curious	-10.9126
▁despair	-10.9126
▁display	-10.9126
▁enterprise	-10.9126
▁happily	-10.9126
▁indispensable	-10.9126
▁magnet	-10.9126
▁overcoat	-10.9126
▁volume	-10.9126
▁Earth	-10.9127
▁domestic	-10.9127
▁pardon	-10.9127
▁fuel	-10.9127
▁attributed	-10.9127
▁solid	-10.9127
▁Must	-10.9127
▁opposite	-10.9127
▁competition	-10.9127
▁Like	-10.9127
▁Health	-10.9127
▁retirement	-10.9128
▁improvement	-10.9128
▁permitting	-10.9129
▁Bible	-10.9129
ueen	-10.9129
▁everywhere	-10.913
▁complaints	-10.913
▁household	-10.9131
▁affection	-10.9132
▁preparation	-10.9133
▁frequently	-10.9134
▁pronounce	-10.9136
▁coal	-10.9137
▁postponed	-10.9138
lea	-10.9138
▁snowing	-10.9139
▁manufacture	-10.9142
▁overwork	-10.9143
▁cheating	-10.9147
▁encouraged	-10.9148
▁Joe	-10.9152
▁barking	-10.9158
▁defeated	-10.916
▁reserved	-10.9171
▁Bad	-10.9174
▁stepp	-10.9188
▁stronger	-10.9198
▁insects	-10.9207
▁trifles	-10.9213
▁victims	-10.9213
▁pressed	-10.9216
▁gra	-10.9226
▁shorter	-10.9229
iled	-10.9243
▁bush	-10.9245
▁tools	-10.9251
▁ideal	-10.9272
ache	-10.9275
▁acknowledge	-10.9292
▁trained	-10.9301
fu	-10.9303
nother	-10.9303
▁showing	-10.9304
▁experienced	-10.9322
▁metal	-10.9328
▁training	-10.9336
ears	-10.9337
▁scar	-10.9354
▁Age	-10.9358
use	-10.9368
▁jobs	-10.9385
▁Tak	-10.9387
▁Ri	-10.9396
G	-10.944
shirt	-10.9441
house	-10.9441
▁articles	-10.9454
▁neglect	-10.9455
▁faint	-10.9456
Is	-10.9457
▁remove	-10.9467
air	-10.947
nic	-10.9485
0,000	-10.9495
pecul	-10.9496
▁Food	-10.9497
▁Mexico	-10.9497
▁arguing	-10.9497
▁conceal	-10.9497
▁confront	-10.9497
▁consequence	-10.9497
▁deaf	-10.9497
▁decay	-10.9497
▁envelope	-10.9497
▁gesture	-10.9497
▁gloves	-10.9497
▁horrible	-10.9497
▁inferior	-10.9497
▁relief	-10.9497
▁revolution	-10.9497
▁suspicion	-10.9497
▁suspicious	-10.9497
▁terribly	-10.9497
▁Computer	-10.9497
▁Education	-10.9497
▁Strange	-10.9497
▁chemical	-10.9497
▁frame	-10.9497
▁steam	-10.9497
▁sweep	-10.9497
▁Italian	-10.9497
▁basis	-10.9497
▁necessity	-10.9497
▁naughty	-10.9497
▁diligence	-10.9497
▁mass	-10.9497
▁Old	-10.9497
▁breed	-10.9497
▁deny	-10.9497
▁duties	-10.9497
▁Keiko	-10.9497
▁sunset	-10.9497
▁latter	-10.9498
▁harmful	-10.9499
▁somehow	-10.95
▁European	-10.9501
▁indicate	-10.9501
▁discouraged	-10.9501
▁agent	-10.9501
▁cookies	-10.9501
▁Light	-10.9501
▁fluently	-10.9502
▁lightning	-10.9503
▁hike	-10.9504
▁nowhere	-10.9505
▁sixty	-10.9506
▁receiv	-10.9508
▁rejected	-10.9512
▁Sally	-10.9515
▁louder	-10.9516
▁torn	-10.9519
▁Up	-10.9531
▁delivered	-10.9543
▁repeated	-10.9548
▁Air	-10.9557
▁troubled	-10.9558
▁limited	-10.9565
▁Indian	-10.9567
▁breathe	-10.9569
▁lo	-10.9575
▁Fa	-10.9576
▁hardships	-10.9587
▁struggle	-10.9592
▁patients	-10.9594
▁hut	-10.9598
▁attacked	-10.9604
▁chat	-10.9606
▁admir	-10.9612
▁Com	-10.9614
ame	-10.9622
▁origin	-10.9644
▁boasts	-10.9648
▁Gra	-10.9657
▁expecting	-10.9661
▁happening	-10.9675
bove	-10.9701
▁attract	-10.9719
▁documents	-10.973
▁overlook	-10.9739
rely	-10.9747
▁sweets	-10.9756
▁reporter	-10.9756
▁Sato	-10.9765
▁toys	-10.9767
▁profits	-10.9787
▁commands	-10.9799
▁shout	-10.9811
▁gather	-10.9813
▁pray	-10.982
▁obtain	-10.984
▁disappear	-10.9841
▁witness	-10.9845
▁ignore	-10.9857
▁East	-10.9858
ak	-10.9858
▁peaceful	-10.9874
▁mental	-10.9875
hood	-10.9877
clined	-10.988
▁August	-10.9881
▁analysis	-10.9881
▁campaign	-10.9881
▁downstairs	-10.9881
▁harbor	-10.9881
▁humble	-10.9881
▁intelligence	-10.9881
▁jogging	-10.9881
▁lung	-10.9881
▁replied	-10.9881
▁satellite	-10.9881
▁shade	-10.9881
▁whale	-10.9881
▁worthwhile	-10.9881
▁secure	-10.9881
▁cease	-10.9882
▁neat	-10.9882
▁scrap	-10.9882
▁democracy	-10.9882
▁wander	-10.9882
▁USA	-10.9882
▁House	-10.9882
▁elephant	-10.9883
▁grasp	-10.9883
▁proverb	-10.9883
▁ga	-10.9884
▁collection	-10.9884
▁angle	-10.9884
▁Desp	-10.9884
▁cage	-10.9885
▁package	-10.9887
▁considerable	-10.9888
▁coach	-10.9888
▁Frankly	-10.9888
▁thoroughly	-10.9889
▁Add	-10.9891
▁educational	-10.99
▁cloudy	-10.9902
▁sailor	-10.9909
▁persons	-10.9909
ric	-10.991
▁Words	-10.991
▁pace	-10.9914
▁robber	-10.9916
▁performed	-10.9918
▁ruined	-10.9927
▁resolve	-10.9928
▁passes	-10.9928
▁Englishman	-10.9931
▁Need	-10.9931
cial	-10.9932
▁collected	-10.9933
▁instructions	-10.9936
▁recall	-10.9936
▁resigned	-10.9947
▁killing	-10.9947
▁lips	-10.9956
▁exchanged	-10.9964
boo	-10.9966
▁steps	-10.9978
▁lifted	-10.9978
▁danced	-10.9982
▁shocked	-10.9988
▁investigate	-11.0006
bed	-11.0025
▁fewer	-11.0034
▁hurts	-11.004
▁daughters	-11.0055
fully	-11.007
▁boast	-11.0078
▁faced	-11.0112
tory	-11.0114
▁Mari	-11.0121
10	-11.0126
▁soil	-11.0131
▁signed	-11.0155
▁Wi	-11.0178
vin	-11.0197
▁maintain	-11.024
▁scream	-11.0241
▁argue	-11.025
▁reduce	-11.025
▁Speak	-11.0251
fall	-11.0251
▁sink	-11.0253
five	-11.0257
▁prince	-11.0279
▁indulge	-11.028
▁bankrupt	-11.0281
▁text	-11.0281
▁Francisco	-11.0281
▁Switzerland	-11.0281
▁absurd	-11.0281
▁abundant	-11.0281
▁babies	-11.0281
▁elbow	-11.0281
▁glimpse	-11.0281
▁horror	-11.0281
▁imagination	-11.0281
▁injury	-11.0281
▁liquid	-11.0281
▁memories	-11.0281
▁misfortune	-11.0281
▁nonsense	-11.0281
▁phrase	-11.0281
▁preserve	-11.0281
▁proportion	-11.0281
▁rotten	-11.0281
▁scheme	-11.0281
▁stretch	-11.0281
▁sufficient	-11.0281
▁sympathy	-11.0281
▁venture	-11.0281
▁zero	-11.0281
▁grapes	-11.0281
▁hidden	-11.0281
▁priest	-11.0281
▁Hotel	-11.0281
▁string	-11.0281
▁Learn	-11.0282
▁riot	-11.0282
▁root	-11.0282
▁nail	-11.0282
▁chest	-11.0282
▁civilization	-11.0282
▁coast	-11.0282
▁garage	-11.0282
▁crawl	-11.0282
▁series	-11.0282
▁Airport	-11.0282
▁nap	-11.0282
▁Half	-11.0282
▁review	-11.0282
▁mud	-11.0282
▁engagement	-11.0282
▁assistance	-11.0282
▁scholarship	-11.0283
▁exhibition	-11.0283
▁equipment	-11.0283
▁refugees	-11.0283
▁invest	-11.0283
▁maid	-11.0284
▁assist	-11.0284
▁grain	-11.0284
▁dependent	-11.0284
▁nearby	-11.0285
▁abuse	-11.0285
▁candy	-11.0288
▁keys	-11.0295
▁wondered	-11.0295
▁elderly	-11.0298
▁fastest	-11.0306
▁exception	-11.0316
▁melt	-11.0319
▁dancer	-11.0319
▁pockets	-11.0322
▁ignored	-11.0326
▁fainted	-11.0326
▁cured	-11.0328
▁mixed	-11.033
▁eighty	-11.0355
▁farther	-11.0357
▁Too	-11.0357
▁weapons	-11.0358
▁rank	-11.036
▁net	-11.0362
car	-11.0363
▁excused	-11.0373
▁citizens	-11.0388
▁economics	-11.0388
▁Ni	-11.039
▁welcomed	-11.04
▁remembered	-11.0402
▁strongly	-11.0414
shed	-11.0418
▁objected	-11.0423
▁rocks	-11.0428
▁knees	-11.0433
▁hi	-11.0457
▁Gu	-11.0469
tick	-11.0493
void	-11.0494
oc	-11.0507
▁wave	-11.0508
▁pea	-11.0519
ump	-11.0531
▁adult	-11.0536
▁nerve	-11.0537
▁guest	-11.0541
▁sometime	-11.0569
▁sincere	-11.0577
▁areas	-11.0578
▁inter	-11.0596
▁wondering	-11.0598
▁North	-11.0598
▁lied	-11.0612
▁Da	-11.0613
▁official	-11.0615
H	-11.0629
some	-11.064
▁planes	-11.0641
▁gains	-11.0645
Oh	-11.0645
▁convince	-11.0666
▁forms	-11.0677
kin	-11.068
▁profession	-11.068
▁batter	-11.0686
▁possibl	-11.069
ather	-11.0691
▁permit	-11.0695
▁pursu	-11.0697
arents	-11.0697
▁represent	-11.0698
▁alter	-11.0698
▁Brazil	-11.0698
▁Edison	-11.0698
▁Linda	-11.0698
▁alien	-11.0698
▁amusement	-11.0698
▁athletic	-11.0698
▁brake	-11.0698
▁breast	-11.0698
▁burden	-11.0698
▁confusion	-11.0698
▁cottage	-11.0698
▁descend	-11.0698
▁dessert	-11.0698
▁farewell	-11.0698
▁fiction	-11.0698
▁fulfill	-11.0698
▁handkerchief	-11.0698
▁inflation	-11.0698
▁jeans	-11.0698
▁kitten	-11.0698
▁polish	-11.0698
▁railroad	-11.0698
▁salad	-11.0698
▁sauce	-11.0698
▁silk	-11.0698
▁sleeve	-11.0698
▁sunshine	-11.0698
▁survey	-11.0698
▁tournament	-11.0698
▁typewriter	-11.0698
▁Bank	-11.0698
▁slope	-11.0698
▁lamp	-11.0698
▁haircut	-11.0698
▁random	-11.0698
▁bond	-11.0698
▁platform	-11.0698
▁cattle	-11.0698
▁Pass	-11.0698
▁Talk	-11.0698
▁bucket	-11.0699
▁wool	-11.0699
▁Hand	-11.0699
▁arise	-11.0699
▁partner	-11.07
▁bathroom	-11.07
▁governor	-11.07
▁Cats	-11.07
▁thirsty	-11.0702
▁bedroom	-11.0703
▁delivery	-11.0713
▁released	-11.0714
▁exposed	-11.0714
▁examined	-11.0719
▁slightly	-11.0719
▁businessman	-11.072
▁Run	-11.0724
▁someday	-11.0725
▁offend	-11.0726
▁Na	-11.0734
▁seeking	-11.0739
▁beginners	-11.0744
▁mission	-11.0749
▁brightly	-11.0753
▁compete	-11.0755
▁naturally	-11.076
▁sheet	-11.0782
▁sin	-11.0837
▁principles	-11.0849
▁adults	-11.0863
▁pal	-11.088
▁Ah	-11.089
iness	-11.0904
mong	-11.0905
▁compar	-11.0913
mple	-11.0936
▁savings	-11.0955
▁sore	-11.0966
uite	-11.0968
▁photos	-11.0969
▁knee	-11.0971
▁contain	-11.0972
▁experiences	-11.0973
▁source	-11.0973
hello	-11.0976
▁curtains	-11.0976
▁coin	-11.0979
▁magazines	-11.1014
▁wasted	-11.1041
signed	-11.1075
Will	-11.1077
Let	-11.1078
dent	-11.1079
▁stores	-11.1087
▁perform	-11.1091
▁spoil	-11.1092
▁defeat	-11.1092
cer	-11.1111
▁jealous	-11.1121
▁Foreign	-11.1133
▁Internet	-11.1133
▁Language	-11.1133
▁Professor	-11.1133
▁Suzuki	-11.1133
▁Written	-11.1133
▁awkward	-11.1133
▁client	-11.1133
▁compromise	-11.1133
▁contrast	-11.1133
▁female	-11.1133
▁happiest	-11.1133
▁illegal	-11.1133
▁march	-11.1133
▁negative	-11.1133
▁permanent	-11.1133
▁prejudice	-11.1133
▁railway	-11.1133
▁reception	-11.1133
▁security	-11.1133
▁skating	-11.1133
▁Milk	-11.1133
▁annual	-11.1133
▁hammer	-11.1133
▁thrill	-11.1133
▁shelter	-11.1133
▁ladies	-11.1133
▁ripe	-11.1133
▁Stand	-11.1133
▁Besides	-11.1133
▁Music	-11.1133
▁ugly	-11.1133
▁championship	-11.1133
▁amusing	-11.1133
▁oxygen	-11.1133
▁Yoko	-11.1133
▁scale	-11.1133
▁Carol	-11.1133
▁worship	-11.1133
▁primary	-11.1134
▁modest	-11.1134
▁Long	-11.1134
▁Fill	-11.1136
▁tries	-11.1137
▁investigation	-11.1137
▁heels	-11.1138
▁fur	-11.1139
▁Study	-11.1139
▁tiny	-11.114
▁definite	-11.1142
▁liter	-11.1146
▁era	-11.1146
▁endure	-11.1148
▁Wherever	-11.1151
▁Hello	-11.1154
▁Sue	-11.1155
▁select	-11.1155
▁kissed	-11.1163
▁waved	-11.1167
▁reduced	-11.1168
▁spoiled	-11.1174
▁non	-11.1176
▁declined	-11.1176
▁regrett	-11.1178
▁deer	-11.1182
▁extended	-11.1185
▁dim	-11.1189
▁earned	-11.119
▁yes	-11.1191
▁discussing	-11.1203
lus	-11.1204
▁signs	-11.121
▁pink	-11.1219
▁drawer	-11.122
▁methods	-11.1235
▁designed	-11.1236
▁Th	-11.1238
▁pencils	-11.1243
▁items	-11.1254
▁uniforms	-11.1276
▁Shu	-11.1279
▁worrying	-11.1279
▁doubts	-11.1344
▁produces	-11.1351
▁rode	-11.1357
ries	-11.1359
▁ghosts	-11.1387
▁par	-11.1411
▁tu	-11.1415
▁drug	-11.1425
▁principle	-11.1425
▁cheek	-11.1426
▁founded	-11.1429
tan	-11.1434
misunderstanding	-11.1449
▁citizen	-11.1467
nyone	-11.1472
▁seated	-11.1513
water	-11.1532
▁loses	-11.1534
▁chairs	-11.1545
▁annoy	-11.1547
000	-11.1552
▁operate	-11.1556
▁stare	-11.1566
▁immediate	-11.1576
▁industrial	-11.1584
▁transport	-11.1586
owing	-11.1587
▁equip	-11.1587
▁blank	-11.1587
▁bull	-11.1587
▁AIDS	-11.1587
▁Hanako	-11.1587
▁Living	-11.1587
▁September	-11.1587
▁Suppos	-11.1587
▁UFO	-11.1587
▁abilities	-11.1587
▁brilliant	-11.1587
▁calculate	-11.1587
▁captured	-11.1587
▁charity	-11.1587
▁demonstrate	-11.1587
▁dictionaries	-11.1587
▁dishonest	-11.1587
▁enemies	-11.1587
▁grammar	-11.1587
▁instinct	-11.1587
▁mutual	-11.1587
▁shrine	-11.1587
▁stain	-11.1587
▁trace	-11.1587
▁vision	-11.1587
▁Stay	-11.1587
▁distant	-11.1587
▁motive	-11.1587
▁Park	-11.1588
▁flash	-11.1588
▁motor	-11.1588
▁conservative	-11.1588
▁humid	-11.1588
▁confident	-11.1588
▁wipe	-11.1588
▁angel	-11.1588
▁depart	-11.1588
▁software	-11.1588
▁depression	-11.1588
▁barber	-11.1589
▁dining	-11.1589
▁Kong	-11.1589
▁freeze	-11.1589
▁wins	-11.159
▁rocket	-11.159
▁leak	-11.1591
▁Out	-11.1591
▁21	-11.1591
▁Lend	-11.1591
▁intent	-11.1591
▁poetry	-11.1592
▁tide	-11.1594
itive	-11.1595
▁Lake	-11.1595
▁wire	-11.1598
▁pole	-11.1608
▁Cent	-11.1611
▁cultures	-11.1612
▁artificial	-11.1612
▁suburbs	-11.1614
▁proof	-11.1616
▁accounts	-11.1617
▁survived	-11.1618
▁murderer	-11.1621
▁betrayed	-11.1621
▁pig	-11.1626
▁Sho	-11.1626
▁weep	-11.1632
▁hiding	-11.1637
▁traditional	-11.164
▁excuses	-11.1644
▁range	-11.1656
▁relaxed	-11.1673
meter	-11.1675
▁jewels	-11.1676
off	-11.1676
ham	-11.1702
▁ringing	-11.1713
▁tasted	-11.1715
▁mentioned	-11.1745
ttle	-11.1751
▁woode	-11.1757
▁states	-11.1766
▁reports	-11.1778
▁lacking	-11.1787
▁burns	-11.181
ray	-11.1814
▁effects	-11.1856
▁arrives	-11.1882
▁solv	-11.1895
▁Aren	-11.19
▁snake	-11.1901
tally	-11.1903
▁services	-11.1911
▁dealing	-11.1917
aving	-11.1922
▁parted	-11.1947
▁West	-11.1968
▁rates	-11.198
▁faithful	-11.2002
May	-11.2008
▁driven	-11.2009
law	-11.201
▁critic	-11.2015
He	-11.2018
▁scold	-11.2024
bel	-11.2029
▁attach	-11.2029
▁survive	-11.2032
lthough	-11.2047
▁load	-11.2053
▁Mon	-11.2057
▁ju	-11.2062
scribe	-11.2063
nternational	-11.2064
▁Actually	-11.2064
▁Kyushu	-11.2064
▁amazing	-11.2064
▁arrow	-11.2064
▁aspect	-11.2064
▁bundle	-11.2064
▁decrease	-11.2064
▁dispense	-11.2064
▁entitle	-11.2064
▁expedition	-11.2064
▁genuine	-11.2064
▁gym	-11.2064
▁improving	-11.2064
▁laundry	-11.2064
▁merchant	-11.2064
▁naked	-11.2064
▁nowadays	-11.2064
▁species	-11.2064
▁target	-11.2064
▁vacant	-11.2064
▁vague	-11.2064
▁vivid	-11.2064
▁Black	-11.2064
▁Travel	-11.2064
▁abstract	-11.2064
▁leaf	-11.2064
▁plastic	-11.2064
▁skate	-11.2064
▁tragedy	-11.2064
▁waist	-11.2064
▁proceed	-11.2064
▁nodded	-11.2064
▁attain	-11.2064
▁link	-11.2064
▁substitute	-11.2064
▁fuss	-11.2064
▁curiosity	-11.2064
▁Jimmy	-11.2064
▁wolf	-11.2064
▁permitted	-11.2064
▁crane	-11.2064
▁unconscious	-11.2064
▁transferred	-11.2064
▁sword	-11.2064
▁Koko	-11.2064
▁punishment	-11.2065
▁restrain	-11.2065
▁blackboard	-11.2065
▁achievement	-11.2065
▁combine	-11.2065
▁investment	-11.2065
▁legend	-11.2066
▁downtown	-11.2067
▁wept	-11.2067
▁pension	-11.2067
▁powerful	-11.2068
▁sir	-11.2068
▁rudeness	-11.2069
▁disposal	-11.2069
▁slave	-11.2069
▁branches	-11.2072
ery	-11.2073
▁Russian	-11.2076
▁beaten	-11.2076
▁qualifie	-11.2076
▁highway	-11.2077
▁refreshed	-11.2079
▁favorable	-11.2079
▁spy	-11.2086
▁shooting	-11.2093
▁Nor	-11.2097
▁tender	-11.2097
▁noble	-11.2101
▁bend	-11.2103
▁colleagues	-11.2108
▁removed	-11.2112
▁boiling	-11.212
▁developing	-11.2132
ichi	-11.2136
▁sy	-11.214
▁Fu	-11.2143
▁bigge	-11.2155
▁dates	-11.2161
▁sailing	-11.2163
▁watches	-11.2163
▁leaders	-11.2168
▁crashed	-11.217
claimed	-11.2181
▁longest	-11.2189
▁Start	-11.2216
▁rooms	-11.2217
▁gifts	-11.2225
▁snakes	-11.2229
▁aboard	-11.2235
▁cons	-11.2241
▁freely	-11.2264
term	-11.2277
ntil	-11.2292
▁sentences	-11.2322
▁banks	-11.2331
▁Red	-11.2351
▁grades	-11.2352
▁Sh	-11.2359
▁benefits	-11.2392
▁export	-11.2401
▁uniform	-11.2401
▁Star	-11.2407
▁rises	-11.2416
20	-11.2418
▁pens	-11.2421
▁gri	-11.2435
ium	-11.2449
▁spra	-11.2459
▁checks	-11.2463
ker	-11.2475
made	-11.251
avy	-11.2515
door	-11.2515
▁disturb	-11.2522
▁pack	-11.2526
▁arrange	-11.2531
▁puzzle	-11.2531
▁shoot	-11.2533
▁riches	-11.2538
▁tool	-11.2542
▁apparent	-11.2552
ose	-11.2563
Are	-11.2563
▁civil	-11.2564
▁vehicle	-11.2564
▁Angeles	-11.2564
▁California	-11.2564
▁Everest	-11.2564
▁Okinawa	-11.2564
▁Science	-11.2564
▁Singapore	-11.2564
▁Strict	-11.2564
▁Television	-11.2564
▁abolish	-11.2564
▁beneath	-11.2564
▁bodies	-11.2564
▁concrete	-11.2564
▁cotton	-11.2564
▁deficit	-11.2564
▁emphasis	-11.2564
▁envy	-11.2564
▁fascinat	-11.2564
▁garbage	-11.2564
▁imitate	-11.2564
▁intense	-11.2564
▁lemon	-11.2564
▁miracle	-11.2564
▁orphan	-11.2564
▁pigeon	-11.2564
▁religious	-11.2564
▁response	-11.2564
▁seventeen	-11.2564
▁strain	-11.2564
▁straw	-11.2564
▁substance	-11.2564
▁symbol	-11.2564
▁technique	-11.2564
▁telescope	-11.2564
▁temporary	-11.2564
▁thread	-11.2564
▁uncertain	-11.2564
▁unpleasant	-11.2564
▁yacht	-11.2564
ealand	-11.2564
▁drift	-11.2564
▁miserable	-11.2564
▁Count	-11.2564
▁Latin	-11.2564
▁queen	-11.2564
▁exceed	-11.2564
▁tremble	-11.2564
▁lump	-11.2564
▁manual	-11.2564
▁steadily	-11.2564
▁shuttle	-11.2564
▁beggar	-11.2564
▁biology	-11.2564
▁worries	-11.2564
▁monster	-11.2564
▁flock	-11.2564
▁cram	-11.2565
▁icy	-11.2565
▁destination	-11.2565
▁surroundings	-11.2565
▁perhaps	-11.2565
▁Boys	-11.2565
▁resignation	-11.2567
▁pants	-11.2567
▁chain	-11.2567
▁Fish	-11.2568
▁defense	-11.2571
▁mon	-11.2574
▁male	-11.2578
▁sought	-11.2579
▁inquired	-11.2579
▁Rain	-11.2585
▁formal	-11.2587
▁interpreted	-11.2588
▁Roy	-11.2591
ix	-11.2594
▁regularly	-11.2594
▁revealed	-11.2601
▁conditioner	-11.2602
▁cheated	-11.2603
▁gathering	-11.2604
▁rescued	-11.2616
▁screamed	-11.2616
▁approved	-11.2631
▁charmed	-11.2635
ization	-11.2638
▁tense	-11.2647
▁bug	-11.2653
▁approached	-11.2654
▁insulted	-11.2655
▁oldest	-11.2676
▁considering	-11.2678
▁subjects	-11.2679
▁seek	-11.268
▁drawn	-11.268
▁included	-11.2692
▁negotiations	-11.2696
▁heater	-11.2697
▁marked	-11.2704
▁cop	-11.271
▁answering	-11.2736
▁drugs	-11.2746
▁chase	-11.2752
▁avoided	-11.2756
▁types	-11.2764
▁risen	-11.2772
▁counted	-11.279
▁Driv	-11.2801
▁Set	-11.2809
▁spending	-11.281
▁programs	-11.2836
▁fans	-11.2845
▁spa	-11.2846
▁Y	-11.2856
▁pets	-11.2857
▁landed	-11.2863
ush	-11.2882
▁bones	-11.2884
▁Sun	-11.2886
ability	-11.2893
▁Pu	-11.2909
▁twin	-11.2929
▁vegetable	-11.293
▁comic	-11.2932
▁includ	-11.2936
down	-11.2947
dict	-11.295
▁struggl	-11.2956
▁visitor	-11.2965
Y	-11.2973
▁blows	-11.2982
▁islands	-11.301
▁regrets	-11.3017
zen	-11.3018
▁cheat	-11.3018
▁dig	-11.3031
▁hunt	-11.3032
▁Hu	-11.3043
▁explor	-11.3048
▁encourage	-11.3058
▁earthquakes	-11.3069
▁prim	-11.3081
▁heated	-11.3082
▁Mac	-11.3084
▁construct	-11.3085
izing	-11.3086
erhaps	-11.3089
raffic	-11.309
▁champion	-11.309
▁hamburger	-11.309
▁Jiro	-11.309
▁Julie	-11.309
▁Ocean	-11.309
▁Sadako	-11.309
▁Wednesday	-11.309
▁Winter	-11.309
▁continent	-11.309
▁cooperation	-11.309
▁curry	-11.309
▁device	-11.309
▁enormous	-11.309
▁enthusiasm	-11.309
▁harsh	-11.309
▁hobbies	-11.309
▁instrument	-11.309
▁knitting	-11.309
▁privilege	-11.309
▁quantity	-11.309
▁route	-11.309
▁sensible	-11.309
▁specific	-11.309
▁unique	-11.309
▁visa	-11.309
▁volunteer	-11.309
▁Cross	-11.309
▁decorat	-11.309
▁depth	-11.309
▁stove	-11.309
▁Feel	-11.309
▁Susie	-11.309
▁forehead	-11.309
▁screen	-11.309
▁apology	-11.309
▁mankind	-11.309
▁Under	-11.309
▁verge	-11.309
▁regulations	-11.309
▁inviting	-11.309
▁High	-11.309
▁Snow	-11.309
▁tribe	-11.309
▁observation	-11.3091
▁frost	-11.3091
▁mature	-11.3091
▁Jill	-11.3091
overty	-11.3091
▁socks	-11.3091
▁sandwiches	-11.3092
aint	-11.3092
▁shave	-11.3092
▁princess	-11.3093
▁liable	-11.3095
▁weakness	-11.3095
▁hatred	-11.3096
▁planned	-11.3096
▁catching	-11.3097
▁vice	-11.3098
▁golden	-11.3098
▁seaside	-11.3099
▁humanity	-11.3101
▁collar	-11.3105
▁dial	-11.3106
▁smoothly	-11.311
▁planets	-11.3112
▁countryside	-11.3113
▁educated	-11.3114
▁confused	-11.3114
▁prohibited	-11.3116
▁confessed	-11.312
▁described	-11.3121
▁goodbye	-11.3127
▁confirmed	-11.3128
▁employer	-11.313
▁helpful	-11.3131
▁rec	-11.3144
▁obtained	-11.3147
war	-11.3157
▁adjusted	-11.3163
▁firmly	-11.3165
▁cru	-11.3167
▁riser	-11.3183
▁repairing	-11.3189
▁darker	-11.3197
▁apologized	-11.3198
▁planted	-11.3201
▁clue	-11.3218
lf	-11.3221
▁fund	-11.3223
▁plu	-11.3226
▁hanging	-11.3237
▁flames	-11.3247
▁Taka	-11.325
rail	-11.3252
▁travelers	-11.3253
▁shared	-11.3258
▁increases	-11.3264
▁requested	-11.327
ink	-11.3277
▁objects	-11.3283
▁pile	-11.3289
deli	-11.3317
▁rings	-11.3318
▁ruins	-11.3338
▁laughs	-11.3348
rage	-11.3392
▁surely	-11.3394
▁beautifully	-11.3437
▁lawn	-11.3445
▁congratulat	-11.3466
▁Ted	-11.3471
▁log	-11.3479
▁flame	-11.3483
▁whistle	-11.3489
▁movements	-11.3492
▁handy	-11.35
▁tri	-11.3516
▁serves	-11.3526
▁seasons	-11.3533
▁clu	-11.3568
▁oppos	-11.3574
most	-11.358
▁tradition	-11.3582
▁logic	-11.3589
Why	-11.3589
free	-11.3589
▁pla	-11.3597
▁reveal	-11.3604
▁betray	-11.3605
▁achieve	-11.3612
▁describe	-11.3615
▁frank	-11.3634
▁frequent	-11.3634
▁dirt	-11.3634
▁Far	-11.3639
▁relieve	-11.3642
▁govern	-11.3643
▁negotiat	-11.3643
▁advertise	-11.3644
▁organ	-11.3645
ssociation	-11.3646
▁Columbus	-11.3646
▁Correct	-11.3646
▁Success	-11.3646
▁Washington	-11.3646
▁adequate	-11.3646
▁applies	-11.3646
▁broadcast	-11.3646
▁casual	-11.3646
▁chapter	-11.3646
▁cinema	-11.3646
▁confine	-11.3646
▁council	-11.3646
▁fundamental	-11.3646
▁grammatical	-11.3646
▁inconvenience	-11.3646
▁jail	-11.3646
▁location	-11.3646
▁nasty	-11.3646
▁parallel	-11.3646
▁pizza	-11.3646
▁portrait	-11.3646
▁prevail	-11.3646
▁prospect	-11.3646
▁session	-11.3646
▁sixteen	-11.3646
▁steep	-11.3646
▁structure	-11.3646
▁technical	-11.3646
▁thieves	-11.3646
▁thumb	-11.3646
▁title	-11.3646
▁trading	-11.3646
▁volleyball	-11.3646
▁James	-11.3646
▁harmony	-11.3646
▁inherit	-11.3646
▁valid	-11.3646
▁balloon	-11.3646
▁pattern	-11.3646
▁vary	-11.3646
▁offense	-11.3646
▁Alex	-11.3646
▁instance	-11.3646
▁closing	-11.3646
▁executive	-11.3646
▁flour	-11.3646
▁alternate	-11.3646
▁medium	-11.3646
▁feather	-11.3646
▁cell	-11.3646
▁sushi	-11.3646
▁shaking	-11.3646
▁punch	-11.3646
▁swam	-11.3647
▁vita	-11.3647
mpty	-11.3647
▁factories	-11.3647
▁flesh	-11.3647
▁rebel	-11.3647
▁Hung	-11.3648
▁puppy	-11.3648
▁mended	-11.3648
▁potatoes	-11.3649
▁nest	-11.3649
▁cultivate	-11.365
▁slightest	-11.365
▁reaction	-11.365
▁sunlight	-11.365
▁protection	-11.3651
▁medal	-11.3651
▁Wash	-11.3651
▁merit	-11.3652
wives	-11.3652
▁stopping	-11.3652
▁Party	-11.3652
▁halfway	-11.3652
▁policemen	-11.3654
▁polluted	-11.3654
▁emerged	-11.3654
▁yell	-11.3657
▁frankly	-11.3657
▁damp	-11.3659
▁corn	-11.3659
▁distributed	-11.3661
▁childish	-11.3661
▁sewing	-11.3662
▁Ow	-11.3663
▁occupied	-11.3665
▁sickness	-11.3666
▁blushed	-11.3668
▁criticized	-11.3669
▁irritated	-11.367
▁Farm	-11.3671
▁mat	-11.3676
▁matches	-11.3678
▁crown	-11.3679
▁cooler	-11.3681
ians	-11.3683
▁gap	-11.3685
▁City	-11.3686
▁anyway	-11.3687
ountain	-11.3692
▁rear	-11.3694
▁Kei	-11.3695
▁sharply	-11.3698
▁scent	-11.37
▁fist	-11.3709
ield	-11.3715
▁rolling	-11.3724
▁Doctors	-11.3726
▁pickpockets	-11.3726
▁lover	-11.3729
▁spelling	-11.3731
▁rubb	-11.3741
▁Sure	-11.3755
cho	-11.3763
▁menu	-11.3769
anna	-11.3781
▁painful	-11.3793
▁quarreling	-11.3799
▁appreciated	-11.3804
▁joint	-11.3826
▁exports	-11.3831
▁inch	-11.3883
▁confirm	-11.3933
▁media	-11.3946
▁breathed	-11.3948
board	-11.3967
pple	-11.3984
ccidents	-11.4032
▁Yu	-11.4045
▁Ya	-11.4045
▁arrangement	-11.4071
▁cow	-11.4082
▁expectation	-11.4085
umi	-11.4088
▁cousins	-11.4092
▁brains	-11.4101
▁spin	-11.4103
▁sigh	-11.4108
▁Cow	-11.4112
nched	-11.4128
▁skills	-11.4143
▁discover	-11.4182
▁sm	-11.4188
▁kiss	-11.4193
▁propose	-11.4202
Who	-11.421
ology	-11.4224
housands	-11.423
stal	-11.4232
▁prior	-11.4233
wimming	-11.4233
▁varie	-11.4233
▁endeavor	-11.4234
▁obstacle	-11.4234
responsibilities	-11.4234
▁Cabinet	-11.4234
▁Check	-11.4234
▁Close	-11.4234
▁Fortunately	-11.4234
▁Hamlet	-11.4234
▁Obviously	-11.4234
▁Sapporo	-11.4234
▁Street	-11.4234
▁abreast	-11.4234
▁advertising	-11.4234
▁alphabet	-11.4234
▁believing	-11.4234
▁blouse	-11.4234
▁bolt	-11.4234
▁chew	-11.4234
▁conscience	-11.4234
▁convention	-11.4234
▁currency	-11.4234
▁desperate	-11.4234
▁draft	-11.4234
▁drought	-11.4234
▁eventually	-11.4234
▁evident	-11.4234
▁gently	-11.4234
▁happier	-11.4234
▁honey	-11.4234
▁luxury	-11.4234
▁mammal	-11.4234
▁military	-11.4234
▁phenomenon	-11.4234
▁pillow	-11.4234
▁reference	-11.4234
▁remote	-11.4234
▁resolution	-11.4234
▁stiff	-11.4234
▁telegram	-11.4234
▁trend	-11.4234
▁ultimate	-11.4234
▁uncomfortable	-11.4234
▁unfair	-11.4234
▁boots	-11.4234
▁gambling	-11.4234
▁handbag	-11.4234
▁impact	-11.4234
▁loaf	-11.4234
▁plot	-11.4234
▁raising	-11.4234
▁spider	-11.4234
▁resume	-11.4234
▁blessed	-11.4234
▁alert	-11.4234
▁boom	-11.4234
▁trap	-11.4234
▁dried	-11.4234
▁journalist	-11.4234
▁hook	-11.4234
▁rust	-11.4234
▁trivia	-11.4234
▁hay	-11.4234
▁chairperson	-11.4234
▁outdoors	-11.4234
▁hint	-11.4234
▁toothache	-11.4234
▁shone	-11.4235
▁graduation	-11.4235
▁riddle	-11.4235
▁recession	-11.4235
▁advertisement	-11.4235
▁addict	-11.4235
▁unknown	-11.4236
▁transportation	-11.4236
▁indoors	-11.4236
▁Ku	-11.4236
▁lifestyle	-11.4237
▁tro	-11.4237
▁swear	-11.4237
▁deadline	-11.4239
▁ninety	-11.4239
ntique	-11.4245
▁popularity	-11.4246
▁apparently	-11.4248
▁battery	-11.4251
▁peacefully	-11.4254
▁define	-11.4256
▁chopsticks	-11.4259
▁hired	-11.4259
▁Fl	-11.4265
▁wiser	-11.4265
▁hunter	-11.4266
▁damn	-11.4267
▁hunting	-11.4268
▁severely	-11.4271
▁weaker	-11.4271
▁thesis	-11.4274
▁sinking	-11.428
▁treaty	-11.4281
▁soap	-11.4282
▁loaded	-11.4286
▁intervals	-11.4289
▁melted	-11.4295
▁Dan	-11.43
▁item	-11.4301
▁sole	-11.4301
▁youngest	-11.4302
▁tempt	-11.4309
▁hated	-11.431
▁dresses	-11.4315
▁Romans	-11.4319
▁dr	-11.4322
▁contents	-11.4326
▁yielded	-11.4326
▁Shin	-11.4341
▁weeds	-11.4341
▁bowl	-11.4346
▁Jo	-11.4354
▁constitution	-11.4412
Certainly	-11.4442
get	-11.4451
ective	-11.4458
▁Pla	-11.4465
▁Mars	-11.4506
ock	-11.452
lay	-11.4568
▁candidates	-11.4584
▁shines	-11.4584
▁comb	-11.4594
▁lit	-11.46
▁disco	-11.4611
▁Comp	-11.4614
▁intentions	-11.4636
▁odds	-11.4645
▁sow	-11.468
ware	-11.469
▁negotiation	-11.4698
▁pupil	-11.4698
▁Sea	-11.4745
minded	-11.477
▁crow	-11.4797
word	-11.48
▁traveler	-11.4804
▁lap	-11.482
▁quote	-11.4826
▁acquire	-11.4827
▁pitch	-11.4836
ught	-11.4837
▁defi	-11.484
▁examine	-11.4842
▁thorough	-11.4847
▁fre	-11.4857
▁terror	-11.4857
▁wrap	-11.4858
▁etc	-11.4858
▁transfer	-11.4858
▁submit	-11.4858
▁frown	-11.4859
▁shudder	-11.4859
Welcome	-11.4859
▁Blood	-11.4859
▁December	-11.4859
▁Democrat	-11.4859
▁Dinner	-11.4859
▁October	-11.4859
▁Scotland	-11.4859
▁aggressive	-11.4859
▁approval	-11.4859
▁brass	-11.4859
▁breeze	-11.4859
▁bygones	-11.4859
▁cherishe	-11.4859
▁chimney	-11.4859
▁cradle	-11.4859
▁cultural	-11.4859
▁dedicate	-11.4859
▁dictator	-11.4859
▁disgrace	-11.4859
▁distinct	-11.4859
▁electronic	-11.4859
▁immigrants	-11.4859
▁jungle	-11.4859
▁kilograms	-11.4859
▁kimono	-11.4859
▁marathon	-11.4859
▁obscure	-11.4859
▁opportunities	-11.4859
▁reckless	-11.4859
▁routine	-11.4859
▁royal	-11.4859
▁status	-11.4859
▁surrender	-11.4859
▁symptom	-11.4859
▁triumph	-11.4859
▁contempt	-11.4859
▁discipline	-11.4859
▁mysterious	-11.4859
▁potential	-11.4859
▁swift	-11.4859
▁conquer	-11.4859
▁undone	-11.4859
▁convey	-11.4859
▁vast	-11.4859
▁trousers	-11.4859
▁competitive	-11.4859
▁Nations	-11.4859
▁moderate	-11.4859
▁laboratory	-11.4859
▁orbit	-11.4859
▁Teach	-11.4859
▁therefore	-11.4859
▁liking	-11.4859
▁announcement	-11.4859
▁edition	-11.4859
▁leap	-11.4859
▁hostile	-11.4859
▁cabinet	-11.4859
▁wrapped	-11.4859
▁soared	-11.486
▁gentlemen	-11.486
▁roar	-11.486
▁email	-11.4861
▁philosophy	-11.4861
▁Carry	-11.4861
▁somewhat	-11.4861
▁cave	-11.4862
▁Kenji	-11.4862
▁sex	-11.4863
▁objective	-11.4864
▁interpreter	-11.4864
▁Six	-11.4865
▁thus	-11.4865
▁deeds	-11.4865
▁exit	-11.4865
▁attendance	-11.4865
orious	-11.4867
▁seventy	-11.4868
▁adore	-11.4869
▁US	-11.4869
▁significant	-11.4876
▁environmental	-11.4876
▁hospitality	-11.4876
▁assemble	-11.4877
▁graceful	-11.4877
▁Ru	-11.4878
miss	-11.4879
▁baked	-11.4881
▁launched	-11.4882
▁legal	-11.4884
▁handling	-11.4886
▁diplomat	-11.4893
▁fourth	-11.4907
▁shouting	-11.491
▁prey	-11.491
▁disturbed	-11.4911
▁overtime	-11.4916
▁foundation	-11.4919
▁earning	-11.4922
▁fairy	-11.4923
▁maintained	-11.4925
▁flush	-11.4926
▁neglected	-11.493
▁ashes	-11.4937
▁carelessly	-11.4942
▁bang	-11.4942
▁protested	-11.4944
▁speeches	-11.4948
▁muscles	-11.495
▁boiled	-11.496
▁architect	-11.4963
▁directed	-11.4963
▁blocked	-11.4971
▁recommended	-11.4971
▁waiter	-11.4992
▁chin	-11.5001
▁needle	-11.5002
▁cleaner	-11.5028
▁speeding	-11.5032
▁boarding	-11.505
ading	-11.5069
▁counting	-11.507
▁marrying	-11.5074
nyhow	-11.5087
▁beam	-11.509
▁sources	-11.5101
ign	-11.5105
▁officials	-11.5112
▁landing	-11.5138
▁disc	-11.5146
▁CDs	-11.5167
▁practiced	-11.517
erial	-11.5172
▁Mar	-11.5185
▁partly	-11.5193
uck	-11.52
On	-11.521
Five	-11.5217
▁farmers	-11.5233
round	-11.5238
like	-11.5259
bar	-11.5264
▁investigat	-11.5305
▁returning	-11.5311
▁22	-11.5314
you	-11.5328
▁victim	-11.5364
▁trifle	-11.5364
▁blossom	-11.5365
▁State	-11.5371
▁hardship	-11.5382
aries	-11.5429
▁Care	-11.5442
▁accompan	-11.5453
100	-11.5464
hold	-11.5466
wood	-11.5468
J	-11.5469
print	-11.5469
third	-11.5469
▁punish	-11.5483
▁adopt	-11.5485
▁grant	-11.5486
▁create	-11.5494
▁grace	-11.5511
▁Yo	-11.5512
▁Frank	-11.5514
elling	-11.5515
▁exhibit	-11.5524
mbassador	-11.5525
▁Animals	-11.5525
▁Government	-11.5525
▁Harry	-11.5525
▁Public	-11.5525
▁Sendai	-11.5525
▁Sleep	-11.5525
▁Summer	-11.5525
▁abrupt	-11.5525
▁accumulate	-11.5525
▁applause	-11.5525
▁blend	-11.5525
▁chalk	-11.5525
▁colour	-11.5525
▁commercial	-11.5525
▁compliment	-11.5525
▁consumption	-11.5525
▁contribution	-11.5525
▁decreasing	-11.5525
▁deliberate	-11.5525
▁destruction	-11.5525
▁earliest	-11.5525
▁efficient	-11.5525
▁hinder	-11.5525
▁kilo	-11.5525
▁landscape	-11.5525
▁magnificent	-11.5525
▁monument	-11.5525
▁necklace	-11.5525
▁neighbour	-11.5525
▁practicing	-11.5525
▁receipt	-11.5525
▁ridiculous	-11.5525
▁scissors	-11.5525
▁steel	-11.5525
▁stubborn	-11.5525
▁thermometer	-11.5525
▁timid	-11.5525
▁trembling	-11.5525
▁outcome	-11.5525
▁overwhelm	-11.5525
▁rainbow	-11.5525
▁Admitt	-11.5525
▁facing	-11.5525
▁shift	-11.5525
▁funeral	-11.5525
▁stingy	-11.5525
▁Clean	-11.5525
▁Steve	-11.5525
▁convert	-11.5525
▁outstanding	-11.5526
▁Small	-11.5526
pplicants	-11.5526
▁horn	-11.5526
▁acute	-11.5526
▁fireworks	-11.5526
▁resent	-11.5526
▁rugby	-11.5526
▁fatigue	-11.5526
▁consumer	-11.5526
▁mice	-11.5526
▁Nature	-11.5526
▁exert	-11.5526
▁merry	-11.5526
▁furious	-11.5526
▁Hiroshima	-11.5526
▁volcano	-11.5526
▁Mind	-11.5526
▁authorities	-11.5527
▁cabin	-11.5527
▁frog	-11.5527
▁assert	-11.5528
▁Anyway	-11.5528
▁Beware	-11.5528
▁campus	-11.5528
▁admiration	-11.5528
▁auto	-11.5528
▁employment	-11.5528
▁peak	-11.5528
▁code	-11.5528
▁scarf	-11.5528
▁Four	-11.553
▁considerate	-11.553
▁tidy	-11.5531
▁idleness	-11.5531
▁jog	-11.5532
▁Big	-11.5533
▁condemned	-11.5533
▁economical	-11.5534
▁aroused	-11.5536
▁concluded	-11.5536
ision	-11.5541
▁skip	-11.5543
▁eyesight	-11.5543
▁prediction	-11.555
▁pitcher	-11.555
▁housework	-11.5552
▁Earl	-11.5559
▁Fall	-11.556
▁tightly	-11.5563
▁begging	-11.5564
▁Bro	-11.5565
▁Sca	-11.557
▁losses	-11.5573
▁theft	-11.5573
▁sighed	-11.5574
ata	-11.558
▁Anne	-11.558
▁hop	-11.5583
▁recorder	-11.5586
▁derived	-11.5587
▁closer	-11.5587
▁glow	-11.5589
▁camping	-11.5601
▁wink	-11.5602
▁strengthen	-11.5603
▁stressed	-11.5605
▁printed	-11.5608
▁interrupted	-11.5611
▁accomplished	-11.5614
▁lid	-11.5614
▁equally	-11.5618
▁pushing	-11.5631
500	-11.5634
▁Mark	-11.564
▁emotions	-11.5646
▁Dow	-11.568
▁scheduled	-11.568
▁throwing	-11.5696
▁meter	-11.5706
▁arrangements	-11.5716
▁cows	-11.5716
▁decen	-11.572
shop	-11.5732
▁comics	-11.5739
▁Bus	-11.5746
So	-11.5748
Don	-11.5758
▁thoughtful	-11.5765
▁Christ	-11.5773
▁Va	-11.5816
▁partial	-11.5832
▁ants	-11.5842
▁ni	-11.5887
eek	-11.5889
▁Land	-11.5897
▁dared	-11.5928
▁tin	-11.5966
▁dre	-11.6006
nybody	-11.6034
▁insect	-11.6078
called	-11.6083
istic	-11.613
▁identif	-11.6169
point	-11.618
▁adj	-11.6182
smoking	-11.6184
Where	-11.6184
book	-11.6188
▁register	-11.6198
▁disgust	-11.6198
▁confess	-11.6198
▁abandon	-11.6199
▁establish	-11.6199
▁disguise	-11.6207
▁confuse	-11.6208
▁cab	-11.6216
▁tap	-11.6234
▁Emi	-11.6238
▁inspect	-11.6238
▁destin	-11.6238
▁excess	-11.6239
▁marvel	-11.6239
▁Hiroshi	-11.6239
▁excel	-11.624
▁encounter	-11.624
▁revolt	-11.624
▁roast	-11.624
▁tobacco	-11.624
▁Congress	-11.624
▁Einstein	-11.624
▁Giants	-11.624
▁Harvard	-11.624
▁Knowledge	-11.624
▁Society	-11.624
▁Thames	-11.624
▁Thomas	-11.624
▁administrati	-11.624
▁aloud	-11.624
▁ambulance	-11.624
▁ancestors	-11.624
▁blot	-11.624
▁bubble	-11.624
▁circus	-11.624
▁comparison	-11.624
▁compass	-11.624
▁compensate	-11.624
▁contemporar	-11.624
▁disadvantage	-11.624
▁eliminate	-11.624
▁eloquent	-11.624
▁extinct	-11.624
▁formula	-11.624
▁gratitude	-11.624
▁handwriting	-11.624
▁heavier	-11.624
▁impressive	-11.624
▁inevitable	-11.624
▁instructive	-11.624
▁masterpiece	-11.624
▁oneself	-11.624
▁palace	-11.624
▁proficien	-11.624
▁promising	-11.624
▁pronunciation	-11.624
▁refusal	-11.624
▁ribbon	-11.624
▁satisfy	-11.624
▁spectators	-11.624
▁spoon	-11.624
▁surgeon	-11.624
▁tendency	-11.624
▁throne	-11.624
▁withdraw	-11.624
▁yourselves	-11.624
▁dignity	-11.624
▁fierce	-11.624
▁foul	-11.624
▁glory	-11.624
▁snack	-11.624
▁Kelly	-11.624
▁dumb	-11.624
▁housing	-11.624
▁nuts	-11.624
▁steer	-11.624
▁Books	-11.624
▁Games	-11.624
▁stake	-11.624
▁urine	-11.624
▁hardworking	-11.624
▁muddy	-11.624
▁shiver	-11.624
▁errand	-11.624
▁enthusiastic	-11.624
rcely	-11.624
▁inspire	-11.624
▁vitamin	-11.624
▁kite	-11.624
▁psychology	-11.624
▁hiking	-11.624
▁clash	-11.624
▁representative	-11.624
▁dreadful	-11.624
▁buck	-11.624
▁soaked	-11.624
▁identity	-11.624
▁label	-11.624
▁marvelous	-11.624
▁oven	-11.624
▁bunch	-11.6241
▁mailbox	-11.6241
gawa	-11.6241
▁slice	-11.6241
▁threatened	-11.6241
▁priority	-11.6241
▁batteries	-11.6241
▁perish	-11.6242
▁gang	-11.6242
▁Death	-11.6242
▁dad	-11.6242
▁mock	-11.6242
▁Henry	-11.6243
▁Haru	-11.6244
▁Hope	-11.6244
▁trop	-11.6244
▁Nick	-11.6244
▁grab	-11.6245
▁beast	-11.6245
▁consistent	-11.6246
▁cling	-11.6246
▁beans	-11.6246
▁corporation	-11.6246
▁promptly	-11.6247
▁shallow	-11.6248
▁Sport	-11.625
▁loving	-11.6251
▁Brea	-11.6251
▁furnished	-11.626
▁undergo	-11.6263
▁collapsed	-11.6267
▁historical	-11.6268
▁acceptable	-11.6268
▁goose	-11.6273
▁quoted	-11.6277
▁restore	-11.6279
bon	-11.628
▁fetch	-11.6282
▁presentation	-11.6284
▁twenties	-11.6295
▁packed	-11.63
▁dine	-11.6307
▁identifie	-11.6312
ook	-11.6313
▁Christian	-11.6335
▁coll	-11.6344
▁wisely	-11.6353
▁defects	-11.6357
▁imagined	-11.6367
▁Move	-11.6369
▁flown	-11.6375
griculture	-11.6376
▁pearls	-11.6382
tracted	-11.6386
ired	-11.6391
▁stormy	-11.6394
▁searching	-11.6425
▁lighter	-11.6448
ficial	-11.6454
looking	-11.6456
▁Sal	-11.6456
▁contented	-11.6463
▁differently	-11.6469
▁imper	-11.6471
chan	-11.6509
▁ut	-11.6509
▁fled	-11.6541
aria	-11.6566
rush	-11.6605
pace	-11.6613
▁spil	-11.6629
▁Social	-11.6703
oh	-11.6747
bility	-11.679
▁classmate	-11.6849
▁tourist	-11.6852
where	-11.691
▁anti	-11.6934
dollar	-11.6952
Well	-11.6953
phone	-11.6954
mark	-11.6955
Would	-11.6959
hour	-11.6965
stand	-11.6966
gging	-11.6966
▁dam	-11.6969
▁froze	-11.6972
▁criticize	-11.6977
▁involve	-11.6977
▁hire	-11.6996
▁fluent	-11.7
reedom	-11.7008
▁restrict	-11.7009
▁renew	-11.7009
▁wreck	-11.7009
stroke	-11.7009
▁Channel	-11.7009
▁Marriage	-11.7009
▁Sachiko	-11.7009
▁Shinjuku	-11.7009
▁Teresa	-11.7009
▁abstain	-11.7009
▁academic	-11.7009
▁applaud	-11.7009
▁brick	-11.7009
▁butterflies	-11.7009
▁calendar	-11.7009
▁caution	-11.7009
▁conform	-11.7009
▁demonstration	-11.7009
▁discrimination	-11.7009
▁drastic	-11.7009
▁erect	-11.7009
▁execute	-11.7009
▁extraordinary	-11.7009
▁famine	-11.7009
▁frustrat	-11.7009
▁geography	-11.7009
▁helicopter	-11.7009
▁hydrogen	-11.7009
▁industries	-11.7009
▁institution	-11.7009
▁joking	-11.7009
▁merrily	-11.7009
▁penalty	-11.7009
▁penetrate	-11.7009
▁pepper	-11.7009
▁procedure	-11.7009
▁pulse	-11.7009
▁recognition	-11.7009
▁reconcile	-11.7009
▁savage	-11.7009
▁scattered	-11.7009
▁sightseeing	-11.7009
▁sketch	-11.7009
▁starving	-11.7009
▁stool	-11.7009
▁thrust	-11.7009
▁turkey	-11.7009
▁twist	-11.7009
▁vacuum	-11.7009
▁vanished	-11.7009
▁visible	-11.7009
▁vocabulary	-11.7009
▁widow	-11.7009
▁Cathy	-11.7009
▁Peace	-11.7009
▁Through	-11.7009
▁commute	-11.7009
▁gossip	-11.7009
▁isolated	-11.7009
▁millionaire	-11.7009
▁postcard	-11.7009
▁radical	-11.7009
▁rational	-11.7009
▁romantic	-11.7009
▁surp	-11.7009
▁swept	-11.7009
▁Martin	-11.7009
▁butterfly	-11.7009
▁sincerity	-11.7009
▁transmit	-11.7009
▁adhere	-11.7009
▁outlook	-11.7009
▁Clear	-11.7009
▁suspended	-11.7009
▁agenda	-11.7009
▁Stock	-11.7009
▁vend	-11.7009
▁Find	-11.7009
▁Pay	-11.7009
▁Large	-11.7009
▁sympathize	-11.7009
▁undertake	-11.7009
▁subscribe	-11.7009
▁curse	-11.7009
▁introduction	-11.7009
▁Kumi	-11.7009
▁bind	-11.7009
▁Luckily	-11.7009
▁hare	-11.701
▁rubbish	-11.701
▁gear	-11.701
▁drum	-11.701
▁slump	-11.701
▁strip	-11.701
▁misery	-11.701
▁reign	-11.701
▁Naka	-11.701
▁winner	-11.701
▁fright	-11.7011
▁resistance	-11.7011
▁chatter	-11.7011
▁viewpoint	-11.7011
▁acid	-11.7011
▁selfishness	-11.7012
▁wholly	-11.7012
▁moonlight	-11.7012
▁pump	-11.7012
▁digest	-11.7012
▁rack	-11.7012
▁Night	-11.7013
▁van	-11.7013
▁curl	-11.7013
▁snowfall	-11.7014
▁Grant	-11.7014
▁timetable	-11.7014
▁Gold	-11.7014
▁waitress	-11.7015
▁fireplace	-11.7016
▁unlikely	-11.7016
▁token	-11.7016
▁attendant	-11.7017
mination	-11.702
▁Pap	-11.7022
▁machinery	-11.7022
▁publisher	-11.7023
▁discharged	-11.7026
▁dye	-11.7026
▁Cold	-11.7028
▁passive	-11.703
▁promote	-11.7031
▁Iron	-11.7034
▁dwell	-11.7034
▁robbery	-11.7038
▁whispered	-11.7041
▁strictly	-11.7042
hip	-11.7043
▁gall	-11.7046
▁disgusted	-11.7054
▁backward	-11.7054
▁registered	-11.7054
▁cable	-11.7056
▁starve	-11.7058
▁..."	-11.7059
▁mid	-11.7062
▁explored	-11.7071
▁bravely	-11.7074
▁poll	-11.7075
▁boxes	-11.7091
▁mum	-11.7097
rept	-11.7099
▁separated	-11.7099
▁clapp	-11.7107
▁raci	-11.7118
▁composer	-11.7126
jo	-11.7155
▁skillful	-11.7156
▁tenth	-11.7188
▁heap	-11.7189
aka	-11.7201
▁windy	-11.7242
ovie	-11.7261
▁seal	-11.7311
zu	-11.7369
▁panic	-11.7397
Eh	-11.7431
witch	-11.7444
2,000	-11.7444
tub	-11.7477
Ah	-11.7519
▁dropp	-11.7547
▁centr	-11.7574
bal	-11.7585
gh	-11.7629
nswer	-11.7637
lways	-11.7639
▁1000	-11.765
▁Ke	-11.7654
▁pearl	-11.7678
▁jewel	-11.7679
▁weapon	-11.768
▁wage	-11.7686
▁lip	-11.7691
▁modif	-11.7697
▁compet	-11.7726
aves	-11.7744
▁fis	-11.7756
Hey	-11.7763
ander	-11.7777
known	-11.7784
class	-11.7786
Have	-11.7786
This	-11.7786
box	-11.779
▁interpret	-11.7792
▁prohibit	-11.7801
▁destroy	-11.7802
▁fold	-11.7806
▁brow	-11.7806
▁anticipate	-11.7809
▁collapse	-11.781
▁engage	-11.781
▁expose	-11.781
▁release	-11.781
▁Tim	-11.7811
▁assure	-11.7812
have	-11.7825
▁actual	-11.7831
▁glob	-11.7834
▁opera	-11.7837
▁potato	-11.7838
▁tomato	-11.7838
▁mill	-11.7839
▁Masa	-11.784
cientists	-11.7841
njoy	-11.7841
xcept	-11.7842
retty	-11.7842
timate	-11.7842
▁affirm	-11.7842
▁astronaut	-11.7842
▁channel	-11.7842
▁facult	-11.7842
▁nephew	-11.7842
▁occupation	-11.7842
▁physician	-11.7842
▁reduction	-11.7842
▁repent	-11.7842
▁trunk	-11.7842
▁Beethoven	-11.7842
▁Change	-11.7842
▁Coffee	-11.7842
▁Egypt	-11.7842
▁Follow	-11.7842
▁GNP	-11.7842
▁Nagano	-11.7842
▁Nikko	-11.7842
▁Oxford	-11.7842
▁Product	-11.7842
▁Scott	-11.7842
▁Sydney	-11.7842
▁Visit	-11.7842
▁advocate	-11.7842
▁ambitious	-11.7842
▁angrily	-11.7842
▁approximate	-11.7842
▁bride	-11.7842
▁buzz	-11.7842
▁chorus	-11.7842
▁concept	-11.7842
▁elegant	-11.7842
▁excluded	-11.7842
▁facilities	-11.7842
▁gorgeous	-11.7842
▁hypothesis	-11.7842
▁immense	-11.7842
▁impolite	-11.7842
▁knives	-11.7842
▁laziness	-11.7842
▁likelihood	-11.7842
▁liquor	-11.7842
▁manuscript	-11.7842
▁misunderstood	-11.7842
▁obstruct	-11.7842
▁orchestra	-11.7842
▁paralyze	-11.7842
▁pregnant	-11.7842
▁prick	-11.7842
▁reckon	-11.7842
▁refund	-11.7842
▁repay	-11.7842
▁republic	-11.7842
▁revenge	-11.7842
▁situated	-11.7842
▁slender	-11.7842
▁squeeze	-11.7842
▁suppress	-11.7842
▁thirteen	-11.7842
▁unemployment	-11.7842
▁urban	-11.7842
▁whiskey	-11.7842
▁whisky	-11.7842
▁yawn	-11.7842
▁Also	-11.7842
▁David	-11.7842
▁amateur	-11.7842
▁nourish	-11.7842
▁positive	-11.7842
▁sexual	-11.7842
▁sunrise	-11.7842
▁wicked	-11.7842
▁operator	-11.7842
▁ensure	-11.7842
▁erupt	-11.7842
▁recollect	-11.7842
▁blessing	-11.7842
▁Ichiro	-11.7842
▁appreciation	-11.7842
▁lottery	-11.7842
▁splash	-11.7842
▁drain	-11.7842
▁ankle	-11.7842
▁Indeed	-11.7842
▁pub	-11.7843
▁allergi	-11.7843
▁Baker	-11.7843
▁preced	-11.7843
▁extension	-11.7843
▁envious	-11.7843
scope	-11.7843
▁scorn	-11.7843
▁penny	-11.7843
▁spilled	-11.7843
▁jewelry	-11.7843
▁hail	-11.7843
▁slide	-11.7843
▁Joan	-11.7843
▁arose	-11.7844
▁hairstyle	-11.7844
▁pause	-11.7844
▁slavery	-11.7844
▁leadership	-11.7844
▁Thus	-11.7844
▁bandage	-11.7844
▁panda	-11.7844
▁skipped	-11.7845
▁eternal	-11.7845
▁pursuit	-11.7845
▁creativ	-11.7846
▁Kato	-11.7846
▁Right	-11.7846
▁reap	-11.7846
▁settlement	-11.7847
▁moist	-11.7847
▁oak	-11.7847
▁mole	-11.785
▁Cheer	-11.7851
▁ballet	-11.7852
▁talkative	-11.7852
▁carbon	-11.7855
▁bleeding	-11.786
▁economically	-11.7861
▁accountant	-11.7861
▁organized	-11.7861
▁tanker	-11.7863
▁withered	-11.7863
▁fatal	-11.7865
▁exploded	-11.7866
ancy	-11.7868
▁haunted	-11.787
▁mini	-11.7871
ification	-11.7871
▁conductor	-11.7874
▁Imp	-11.7875
rain	-11.7877
▁Tate	-11.7879
▁dissolve	-11.7883
▁readily	-11.7885
▁roughly	-11.7889
▁Sir	-11.7892
▁lifetime	-11.7894
▁promoted	-11.7895
▁determine	-11.7898
▁puzzled	-11.7898
▁operated	-11.7904
▁Kim	-11.7906
going	-11.7909
▁anytime	-11.7912
▁divorced	-11.793
east	-11.7933
▁boasted	-11.7933
▁flatly	-11.7936
▁swing	-11.7943
▁silently	-11.7947
agin	-11.7948
▁readers	-11.7986
▁workman	-11.799
▁ruler	-11.7992
asten	-11.81
▁Politic	-11.8105
▁layer	-11.8158
▁emphasize	-11.8159
unch	-11.8226
▁acknowledg	-11.833
▁concentrat	-11.8391
▁bake	-11.8411
emphasized	-11.8416
elect	-11.8417
uous	-11.8422
▁Drive	-11.8531
▁150	-11.8558
▁emotion	-11.8583
▁employee	-11.8591
▁passenger	-11.8592
mid	-11.861
▁Wan	-11.8613
▁scen	-11.8642
00,000	-11.8656
mbled	-11.8671
▁despi	-11.868
V	-11.8691
▁publish	-11.8694
proof	-11.8694
burn	-11.8695
▁invent	-11.8695
grade	-11.8695
lock	-11.8704
▁educat	-11.8708
▁historic	-11.8716
▁Act	-11.873
▁deceive	-11.8734
▁react	-11.8744
▁influen	-11.8749
▁recess	-11.875
▁detect	-11.875
trip	-11.8751
▁gene	-11.8751
athematics	-11.8751
▁adjourn	-11.8751
▁Grandfather	-11.8751
▁Grandmother	-11.8751
▁Jeff	-11.8751
▁Napoleon	-11.8751
▁Patterson	-11.8751
▁blast	-11.8751
▁commission	-11.8751
▁diminish	-11.8751
▁eagle	-11.8751
▁frugal	-11.8751
▁groan	-11.8751
▁harass	-11.8751
▁mortal	-11.8751
▁neutral	-11.8751
▁precise	-11.8751
▁stereo	-11.8751
▁ABC	-11.8751
▁Antarctic	-11.8751
▁Apparently	-11.8751
▁Autumn	-11.8751
▁Beatles	-11.8751
▁Beauty	-11.8751
▁Canadian	-11.8751
▁Hawking	-11.8751
▁Kennedy	-11.8751
▁November	-11.8751
▁Physic	-11.8751
▁Police	-11.8751
▁Practic	-11.8751
▁Second	-11.8751
▁Shibuya	-11.8751
▁Windows	-11.8751
▁admoni	-11.8751
▁anniversary	-11.8751
▁attorney	-11.8751
▁bulk	-11.8751
▁cafeteria	-11.8751
▁calculator	-11.8751
▁carpenter	-11.8751
▁centimeters	-11.8751
▁certificate	-11.8751
▁choked	-11.8751
▁circulation	-11.8751
▁creep	-11.8751
▁deciding	-11.8751
▁declining	-11.8751
▁devou	-11.8751
▁dialect	-11.8751
▁embarrassing	-11.8751
▁encyclopedia	-11.8751
▁energetic	-11.8751
▁equator	-11.8751
▁evolution	-11.8751
▁excursion	-11.8751
▁forbidden	-11.8751
▁gorilla	-11.8751
▁halves	-11.8751
▁housewife	-11.8751
▁impulse	-11.8751
▁industrious	-11.8751
▁karaoke	-11.8751
▁margin	-11.8751
▁memorize	-11.8751
▁mushroom	-11.8751
▁nonstop	-11.8751
▁obstinate	-11.8751
▁pajamas	-11.8751
▁perfume	-11.8751
▁policies	-11.8751
▁privacy	-11.8751
▁profound	-11.8751
▁psychological	-11.8751
▁rigid	-11.8751
▁sacred	-11.8751
▁sidewalk	-11.8751
▁significance	-11.8751
▁wrestler	-11.8751
upreme	-11.8751
▁Alps	-11.8751
▁Draw	-11.8751
▁click	-11.8751
▁inhabitants	-11.8751
▁intrude	-11.8751
▁kettle	-11.8751
▁quiz	-11.8751
▁raincoat	-11.8751
▁unlocked	-11.8751
exempt	-11.8751
▁contend	-11.8751
▁luxuri	-11.8751
▁okay	-11.8751
▁pastime	-11.8751
▁zip	-11.8751
▁faded	-11.8751
▁cooperate	-11.8751
▁sneak	-11.8751
▁agency	-11.8751
▁initial	-11.8751
▁subtle	-11.8751
▁Tower	-11.8751
▁ascend	-11.8751
▁barrier	-11.8751
▁dripping	-11.8751
▁dense	-11.8752
▁Lisa	-11.8752
moto	-11.8752
▁consumed	-11.8752
▁stable	-11.8752
▁tolerate	-11.8752
▁Aoi	-11.8752
▁favourite	-11.8752
▁napkin	-11.8752
▁bitten	-11.8752
▁submitted	-11.8752
rgent	-11.8752
▁magician	-11.8752
▁bankruptcy	-11.8752
▁catalogue	-11.8752
▁Drink	-11.8752
▁prosperity	-11.8752
▁melon	-11.8753
▁Yuki	-11.8753
▁Ogawa	-11.8753
▁Kawa	-11.8753
▁racing	-11.8753
▁cancelled	-11.8753
▁considerably	-11.8753
▁feast	-11.8753
▁cellar	-11.8753
▁screw	-11.8753
▁rash	-11.8753
▁arch	-11.8754
carriage	-11.8754
▁mosquitoes	-11.8754
▁duck	-11.8754
▁membership	-11.8754
vant	-11.8754
▁aspirin	-11.8754
▁incredible	-11.8754
▁cruelty	-11.8754
▁persistent	-11.8755
▁consciousness	-11.8755
▁violinist	-11.8755
▁Job	-11.8755
▁typist	-11.8755
▁emotional	-11.8755
▁paw	-11.8756
▁attraction	-11.8756
▁bravery	-11.8756
▁greedy	-11.8757
▁regrettable	-11.8757
▁Flight	-11.8757
▁mansion	-11.8757
▁ripp	-11.8757
▁cock	-11.8757
▁secondhand	-11.8757
▁Stee	-11.8758
▁mineral	-11.8758
▁Sales	-11.8759
▁verse	-11.876
▁Less	-11.876
▁inventor	-11.876
▁inches	-11.876
▁infection	-11.8761
▁globe	-11.8761
▁Union	-11.8761
▁prefecture	-11.8763
▁Paula	-11.8763
▁tension	-11.8763
▁revived	-11.8766
▁informal	-11.8766
▁travelling	-11.8767
▁Emily	-11.8767
▁tame	-11.8769
▁conceive	-11.8769
▁sumo	-11.8771
▁illustrated	-11.8772
stray	-11.8772
▁Really	-11.8776
▁aging	-11.8777
▁jealousy	-11.8777
▁Korean	-11.8779
▁tumble	-11.8783
▁unexpectedly	-11.8787
▁anticipated	-11.8787
▁assured	-11.8788
pending	-11.8792
▁unto	-11.8792
▁disguised	-11.8794
▁starved	-11.8794
▁bay	-11.8794
▁politely	-11.8806
▁Easter	-11.8808
▁eagerly	-11.8821
▁mall	-11.8831
anned	-11.8832
▁distract	-11.8832
▁hopeless	-11.8834
▁touches	-11.8834
▁endless	-11.8848
▁eng	-11.8868
▁prayer	-11.8904
▁Ju	-11.892
fish	-11.899
oko	-11.8991
▁Bear	-11.8996
▁bustl	-11.9039
▁exaggerate	-11.9062
▁weaken	-11.911
eft	-11.9127
▁smoker	-11.9149
skirts	-11.9183
▁Moderat	-11.9212
itch	-11.9213
▁Naok	-11.9228
▁originate	-11.9253
▁2000	-11.9265
▁Dai	-11.9293
crat	-11.9299
▁tag	-11.938
person	-11.9384
long	-11.9445
▁120	-11.9528
ological	-11.9546
nything	-11.9579
▁defect	-11.9587
▁temp	-11.96
▁stir	-11.9633
▁particip	-11.9642
▁stimul	-11.9654
capable	-11.9695
cloth	-11.9695
Keep	-11.9695
When	-11.9695
power	-11.9695
life	-11.9697
Can	-11.97
manufactur	-11.9707
▁whisper	-11.9709
▁blush	-11.971
▁reject	-11.971
▁dismiss	-11.9711
▁postpone	-11.9719
▁inquire	-11.972
▁Ric	-11.9726
▁sew	-11.9727
▁numb	-11.9736
By	-11.9736
▁indicat	-11.9741
▁Part	-11.9743
lence	-11.9747
▁prosper	-11.975
uclear	-11.9751
ivide	-11.9751
▁inhabit	-11.9751
hearted	-11.9751
▁Admission	-11.9751
▁Atlantic	-11.9751
▁Cambridge	-11.9751
▁Cookie	-11.9751
▁Darwin	-11.9751
▁Disneyland	-11.9751
▁Elizabeth	-11.9751
▁Express	-11.9751
▁Fukuoka	-11.9751
▁Greece	-11.9751
▁Honolulu	-11.9751
▁Jordan	-11.9751
▁Michael	-11.9751
▁Nagasaki	-11.9751
▁Seven	-11.9751
▁Trade	-11.9751
▁Yeah	-11.9751
▁ablaze	-11.9751
▁abnormal	-11.9751
▁abundance	-11.9751
▁briefcase	-11.9751
▁bruise	-11.9751
▁chores	-11.9751
▁collided	-11.9751
▁combination	-11.9751
▁competitor	-11.9751
▁corruption	-11.9751
▁craft	-11.9751
▁cycling	-11.9751
▁disclose	-11.9751
▁displeased	-11.9751
▁dragon	-11.9751
▁embark	-11.9751
▁essence	-11.9751
▁flavor	-11.9751
▁footsteps	-11.9751
▁grocery	-11.9751
▁guidance	-11.9751
▁handshake	-11.9751
▁honeymoon	-11.9751
▁integr	-11.9751
▁kanji	-11.9751
▁lounge	-11.9751
▁mischief	-11.9751
▁motorbike	-11.9751
▁newcomer	-11.9751
▁nickname	-11.9751
▁numerous	-11.9751
▁overslept	-11.9751
▁perceive	-11.9751
▁plague	-11.9751
▁playground	-11.9751
▁proposition	-11.9751
▁rainforests	-11.9751
▁revised	-11.9751
▁rifle	-11.9751
▁sensation	-11.9751
▁shattered	-11.9751
▁strategy	-11.9751
▁survival	-11.9751
▁teens	-11.9751
▁territory	-11.9751
▁testimony	-11.9751
▁transform	-11.9751
▁trash	-11.9751
▁unfortunate	-11.9751
▁unlucky	-11.9751
▁unwilling	-11.9751
▁vessel	-11.9751
▁Dark	-11.9751
▁autograph	-11.9751
▁banquet	-11.9751
▁clown	-11.9751
▁daisies	-11.9751
▁dumped	-11.9751
▁equivalent	-11.9751
▁stroll	-11.9751
▁version	-11.9751
▁Believ	-11.9751
▁Chance	-11.9751
▁brood	-11.9751
▁consumes	-11.9751
▁giant	-11.9751
▁mysteries	-11.9751
▁Lately	-11.9751
▁clutch	-11.9751
▁courtesy	-11.9751
▁overflow	-11.9751
▁queue	-11.9751
▁doorbell	-11.9751
▁Dutch	-11.9751
▁alibi	-11.9751
▁intervene	-11.9751
▁freezing	-11.9751
▁surgery	-11.9751
▁optimistic	-11.9751
▁folly	-11.9751
▁pills	-11.9752
▁twinkl	-11.9752
▁requirements	-11.9752
▁spong	-11.9752
▁agitate	-11.9752
▁infant	-11.9752
▁Court	-11.9752
▁Therefore	-11.9752
▁dread	-11.9752
▁Kazu	-11.9752
▁continuous	-11.9752
▁guidebook	-11.9752
▁carrots	-11.9752
▁bald	-11.9752
▁gangster	-11.9752
▁kidding	-11.9752
▁Newton	-11.9752
▁idiot	-11.9752
▁flourish	-11.9752
▁Port	-11.9752
▁Incas	-11.9753
▁colonies	-11.9753
▁stern	-11.9753
occer	-11.9753
▁Butter	-11.9753
▁Matsu	-11.9753
▁Luck	-11.9753
▁echo	-11.9753
▁snowstorm	-11.9753
▁agony	-11.9753
▁stew	-11.9753
▁theories	-11.9753
▁hostage	-11.9754
▁River	-11.9754
▁plunge	-11.9754
ilence	-11.9754
▁rays	-11.9755
▁Rock	-11.9755
▁Fift	-11.9756
▁50,000	-11.9756
▁envi	-11.9756
▁glare	-11.9757
▁theatre	-11.9757
▁tomatoes	-11.9757
▁Ltd	-11.9757
▁sack	-11.9757
▁announcer	-11.9757
▁architecture	-11.9757
▁summar	-11.9758
▁nationality	-11.9758
▁chatting	-11.9759
▁demo	-11.976
▁madness	-11.9762
▁conviction	-11.9762
▁northern	-11.9763
▁patte	-11.9763
▁utili	-11.9763
▁PC	-11.9764
▁forgetful	-11.9767
▁Line	-11.9768
▁postman	-11.9772
▁disappointing	-11.9773
▁startled	-11.9773
▁reflection	-11.9774
▁Pole	-11.9776
▁artistic	-11.9779
▁enjoyment	-11.978
▁mow	-11.9785
▁dearly	-11.9788
liness	-11.979
▁lecturer	-11.9793
▁cheerfully	-11.9795
▁briefly	-11.9798
▁Live	-11.98
itis	-11.9827
▁stimulate	-11.985
▁stirr	-11.9871
▁snapp	-11.9891
▁tighten	-11.9943
consum	-11.9951
▁gripp	-11.9972
▁Roo	-12.0003
ado	-12.0027
ette	-12.0031
anta	-12.0195
users	-12.0369
how	-12.0409
▁measur	-12.042
▁blaze	-12.048
petition	-12.0483
pply	-12.0508
▁bro	-12.0539
▁loo	-12.0549
▁Nic	-12.055
riving	-12.0582
head	-12.0594
keeper	-12.0654
▁muscle	-12.0699
▁Doctor	-12.0699
▁pickpocket	-12.0699
▁instruction	-12.0701
▁Roman	-12.0704
▁determin	-12.0705
▁whip	-12.0709
▁snap	-12.0709
▁desir	-12.075
▁Mount	-12.0768
▁Rai	-12.0805
load	-12.0805
debt	-12.0806
minute	-12.0806
Thank	-12.0806
familiar	-12.0806
U	-12.0806
Please	-12.0806
wide	-12.0808
Did	-12.081
▁whi	-12.0816
▁launch	-12.0821
▁exhaust	-12.0822
▁dwel	-12.0825
▁suck	-12.0828
atsu	-12.0829
▁devote	-12.0831
200	-12.0833
▁tank	-12.0835
▁Stat	-12.0849
▁prompt	-12.0851
ologist	-12.0854
▁refuge	-12.0858
▁pronoun	-12.0859
▁identi	-12.086
▁fro	-12.086
assengers	-12.0861
▁regulat	-12.0862
itude	-12.0862
▁optim	-12.0862
▁Child	-12.0862
▁Technolog	-12.0862
▁Philip	-12.0862
▁analyze	-12.0862
▁bounc	-12.0862
▁fraud	-12.0862
▁ozone	-12.0862
▁perseverance	-12.0862
ahjong	-12.0862
ccuracy	-12.0862
corporate	-12.0862
dversity	-12.0862
intensive	-12.0862
natured	-12.0862
▁Aomori	-12.0862
▁Arctic	-12.0862
▁Charles	-12.0862
▁Claus	-12.0862
▁Constitution	-12.0862
▁Department	-12.0862
▁Emperor	-12.0862
▁Empire	-12.0862
▁Experience	-12.0862
▁Florida	-12.0862
▁Ginza	-12.0862
▁Imagine	-12.0862
▁Jean	-12.0862
▁Kabuki	-12.0862
▁Palace	-12.0862
▁Parliament	-12.0862
▁Pepperberg	-12.0862
▁Regard	-12.0862
▁Shikoku	-12.0862
▁Toyota	-12.0862
▁Translat	-12.0862
▁Twenty	-12.0862
▁Typhoon	-12.0862
▁Venice	-12.0862
▁Yoshida	-12.0862
▁animated	-12.0862
▁apologies	-12.0862
▁apprehensi	-12.0862
▁astonishment	-12.0862
▁astronomy	-12.0862
▁blunder	-12.0862
▁bookshelf	-12.0862
▁bosom	-12.0862
▁calculation	-12.0862
▁clumsy	-12.0862
▁commerce	-12.0862
▁commodities	-12.0862
▁contemplat	-12.0862
▁controversy	-12.0862
▁cycle	-12.0862
▁decade	-12.0862
▁democratic	-12.0862
▁dioxide	-12.0862
▁disciples	-12.0862
▁dissatisfied	-12.0862
▁division	-12.0862
▁dragged	-12.0862
▁empire	-12.0862
▁emptie	-12.0862
▁entrust	-12.0862
▁extravagan	-12.0862
▁fantasy	-12.0862
▁flexible	-12.0862
▁hijack	-12.0862
▁illustration	-12.0862
▁immun	-12.0862
▁initiative	-12.0862
▁intellectual	-12.0862
▁intersection	-12.0862
▁knight	-12.0862
▁knot	-12.0862
▁koala	-12.0862
▁landlord	-12.0862
▁lobster	-12.0862
▁manifest	-12.0862
▁maxim	-12.0862
▁melody	-12.0862
▁merchandise	-12.0862
▁minimum	-12.0862
▁niece	-12.0862
▁nineteen	-12.0862
▁nuisance	-12.0862
▁offensive	-12.0862
▁premature	-12.0862
▁rebellion	-12.0862
▁revenue	-12.0862
▁semester	-12.0862
▁serving	-12.0862
▁shabby	-12.0862
▁signature	-12.0862
▁souvenir	-12.0862
▁sphere	-12.0862
▁supervisor	-12.0862
▁swelled	-12.0862
▁tremendous	-12.0862
▁umpire	-12.0862
▁unaware	-12.0862
▁underground	-12.0862
▁unemployed	-12.0862
▁wrestling	-12.0862
▁wrist	-12.0862
▁premier	-12.0863
▁Office	-12.0863
▁Ueno	-12.0863
▁plead	-12.0863
▁rattled	-12.0863
▁unkind	-12.0863
biography	-12.0863
▁peasant	-12.0863
timing	-12.0863
▁kingdom	-12.0863
▁swarm	-12.0863
ligible	-12.0863
▁Acid	-12.0863
▁naive	-12.0863
▁slim	-12.0863
▁zone	-12.0863
▁William	-12.0863
undred	-12.0863
▁brim	-12.0863
▁microscope	-12.0863
▁nodding	-12.0863
▁stem	-12.0863
▁grieve	-12.0863
▁terminal	-12.0863
▁Fire	-12.0863
▁Ellen	-12.0863
width	-12.0863
▁Still	-12.0863
▁shortcut	-12.0863
▁implie	-12.0863
▁Short	-12.0863
▁rumour	-12.0863
marine	-12.0863
▁insured	-12.0863
▁Thailand	-12.0863
▁anchor	-12.0863
▁crushed	-12.0863
▁Grandma	-12.0863
▁Richard	-12.0863
▁constitute	-12.0863
▁teenagers	-12.0863
▁overnight	-12.0863
▁vigorous	-12.0863
▁automatically	-12.0863
▁thinner	-12.0863
▁weird	-12.0863
▁Plant	-12.0863
▁divers	-12.0863
▁network	-12.0863
▁solo	-12.0863
▁speculat	-12.0864
▁homesick	-12.0864
▁trail	-12.0864
▁comfortably	-12.0864
▁linguistic	-12.0864
▁dating	-12.0864
▁literally	-12.0864
▁banish	-12.0864
▁clay	-12.0864
▁terrorist	-12.0864
▁western	-12.0864
▁jury	-12.0864
▁interpretation	-12.0864
▁competent	-12.0865
▁midst	-12.0865
▁excessive	-12.0865
▁spaceship	-12.0865
▁torment	-12.0865
▁exclusive	-12.0865
▁poisonous	-12.0865
▁Somehow	-12.0865
▁Tax	-12.0865
▁inspection	-12.0865
▁dramatic	-12.0865
▁lick	-12.0866
▁ferry	-12.0866
▁diplomatic	-12.0866
▁shameful	-12.0866
▁Poet	-12.0867
▁distribution	-12.0867
▁minority	-12.0867
▁punctuality	-12.0867
▁barred	-12.0867
▁accomplishment	-12.0867
▁worldwide	-12.0867
▁pinch	-12.0868
▁sprain	-12.0868
▁5,000	-12.0869
▁philosopher	-12.0869
▁parrot	-12.0869
▁flute	-12.0869
▁politeness	-12.0869
▁recommendation	-12.087
▁Opera	-12.087
orient	-12.087
▁lane	-12.087
▁necktie	-12.0872
▁progressive	-12.0872
▁mechanic	-12.0873
▁deck	-12.0873
▁overhead	-12.0874
▁100,000	-12.0874
▁Over	-12.0876
▁masses	-12.0876
▁Takeshi	-12.0877
▁equality	-12.0879
▁firemen	-12.0882
▁blonde	-12.0883
▁reco	-12.0883
▁brightest	-12.0886
▁gamble	-12.0886
hoku	-12.0889
sighted	-12.0894
▁Deal	-12.09
▁chopp	-12.0901
▁Tsu	-12.0905
▁irritate	-12.0909
▁grip	-12.0916
▁incorrect	-12.0927
rmon	-12.0929
▁rug	-12.0942
idge	-12.0957
▁peg	-12.0958
adies	-12.096
▁hedge	-12.0967
rried	-12.0998
▁Rich	-12.1004
▁extract	-12.1011
posed	-12.1034
▁continual	-12.1039
▁respectful	-12.1099
▁scu	-12.1132
15	-12.1156
kai	-12.1186
ferred	-12.1264
▁baker	-12.1269
▁rod	-12.1497
▁Dea	-12.1544
controlled	-12.1653
▁expresse	-12.1657
To	-12.1709
▁ye	-12.1744
prone	-12.177
▁persuad	-12.1831
▁rub	-12.1894
Romeo	-12.1934
▁mathematic	-12.1953
▁graduat	-12.1981
▁Industrial	-12.2018
style	-12.2048
view	-12.2055
Sorry	-12.2056
loved	-12.2056
born	-12.2057
seven	-12.2058
kawa	-12.2065
She	-12.2068
▁haunt	-12.207
▁acquaint	-12.2071
▁refresh	-12.2071
▁Korea	-12.2074
bear	-12.2077
▁Chee	-12.2099
▁Corporat	-12.2101
▁thirst	-12.2101
▁General	-12.2101
▁mode	-12.2102
▁unlike	-12.2106
▁elde	-12.2107
▁sandwich	-12.2108
▁Jan	-12.2109
▁clo	-12.211
xplain	-12.2112
stitute	-12.2112
▁automatic	-12.2112
▁favour	-12.2112
▁villa	-12.2112
▁Thai	-12.2112
▁catalog	-12.2112
iligence	-12.2112
▁micro	-12.2112
▁monitor	-12.2112
▁render	-12.2112
▁Robinson	-12.2112
▁anthropolog	-12.2112
▁bliss	-12.2112
▁bureau	-12.2112
▁comprehend	-12.2112
▁countenance	-12.2112
▁editor	-12.2112
▁powder	-12.2112
▁provok	-12.2112
▁sustain	-12.2112
cautious	-12.2112
enius	-12.2112
▁Asahi	-12.2112
▁Austria	-12.2112
▁Charity	-12.2112
▁Civil	-12.2112
▁Girl	-12.2112
▁Hashimoto	-12.2112
▁Hilton	-12.2112
▁Madonna	-12.2112
▁Meiji	-12.2112
▁Mozart	-12.2112
▁Mummy	-12.2112
▁Newspapers	-12.2112
▁Pardon	-12.2112
▁Sasayama	-12.2112
▁Sphinx	-12.2112
▁Spirit	-12.2112
▁Texas	-12.2112
▁abortion	-12.2112
▁accommodation	-12.2112
▁adjoin	-12.2112
▁aircraft	-12.2112
▁altitude	-12.2112
▁amazement	-12.2112
▁arrogance	-12.2112
▁arrogant	-12.2112
▁auditorium	-12.2112
▁balcony	-12.2112
▁bewildered	-12.2112
▁brisk	-12.2112
▁brochure	-12.2112
▁bronze	-12.2112
▁cabbage	-12.2112
▁cheesecake	-12.2112
▁clinic	-12.2112
▁coincidence	-12.2112
▁compact	-12.2112
▁concise	-12.2112
▁counsel	-12.2112
▁cowboy	-12.2112
▁disapprov	-12.2112
▁dolphin	-12.2112
▁ecology	-12.2112
▁energies	-12.2112
▁expenditure	-12.2112
▁extinguish	-12.2112
▁flattered	-12.2112
▁friction	-12.2112
▁gracious	-12.2112
▁grandparents	-12.2112
▁grudge	-12.2112
▁hesitation	-12.2112
▁humiliated	-12.2112
▁imitation	-12.2112
▁immortal	-12.2112
▁independence	-12.2112
▁infinite	-12.2112
▁instructed	-12.2112
▁invaders	-12.2112
▁invisible	-12.2112
▁irregular	-12.2112
▁irresponsible	-12.2112
▁margari	-12.2112
▁mounted	-12.2112
▁obligation	-12.2112
▁patrol	-12.2112
▁phenomena	-12.2112
▁physicist	-12.2112
▁pleasing	-12.2112
▁prescription	-12.2112
▁presidency	-12.2112
▁questionnaire	-12.2112
▁recreation	-12.2112
▁rejoice	-12.2112
▁sanction	-12.2112
▁satisfaction	-12.2112
▁sausage	-12.2112
▁simultaneous	-12.2112
▁snatch	-12.2112
▁statistic	-12.2112
▁stewardess	-12.2112
▁swollen	-12.2112
▁traitor	-12.2112
▁transaction	-12.2112
▁trump	-12.2112
▁unfriendly	-12.2112
▁unmarried	-12.2112
▁vertical	-12.2112
▁widespread	-12.2112
▁zeal	-12.2112
infinitive	-12.2113
▁Biwa	-12.2113
▁Jew	-12.2113
▁Know	-12.2113
▁Machine	-12.2113
▁Natural	-12.2113
▁Truth	-12.2113
▁bereave	-12.2113
▁crank	-12.2113
▁creating	-12.2113
▁dismay	-12.2113
▁embr	-12.2113
▁flattery	-12.2113
▁fourteen	-12.2113
▁frightening	-12.2113
▁irresp	-12.2113
▁retreat	-12.2113
▁Akira	-12.2113
▁Kathy	-12.2113
▁Kingdom	-12.2113
▁distress	-12.2113
▁stink	-12.2113
▁bonus	-12.2113
▁brace	-12.2113
▁limb	-12.2113
▁wax	-12.2113
▁Again	-12.2113
▁abhorren	-12.2113
▁jar	-12.2113
▁lamb	-12.2113
▁dachshund	-12.2113
▁option	-12.2113
▁piti	-12.2113
▁blog	-12.2113
▁offence	-12.2113
▁unrest	-12.2113
▁merger	-12.2113
▁irrel	-12.2113
▁hatched	-12.2113
▁candid	-12.2113
▁Karen	-12.2113
▁Daddy	-12.2113
▁flatters	-12.2113
▁mountaintop	-12.2113
▁tramp	-12.2113
▁Bark	-12.2113
▁omit	-12.2113
▁grind	-12.2113
▁cement	-12.2113
▁Gulf	-12.2113
▁generate	-12.2113
▁Wind	-12.2113
▁recip	-12.2113
▁handicapped	-12.2113
▁aisle	-12.2113
▁attributes	-12.2113
▁mountaineer	-12.2113
▁odor	-12.2113
▁tuition	-12.2113
▁busiest	-12.2113
▁strawberries	-12.2113
▁terrorism	-12.2113
▁spinning	-12.2113
▁crude	-12.2114
▁spade	-12.2114
▁multipl	-12.2114
▁Yasu	-12.2114
▁lure	-12.2114
▁shaving	-12.2114
▁installed	-12.2114
▁indigna	-12.2114
▁Christianity	-12.2115
▁untidy	-12.2115
▁polar	-12.2115
▁delightful	-12.2115
▁Import	-12.2115
▁Johnny	-12.2115
▁bribery	-12.2115
▁cupboard	-12.2115
▁slam	-12.2116
▁passionate	-12.2116
▁belongings	-12.2117
▁password	-12.2117
▁operating	-12.2117
▁Train	-12.2117
▁Masao	-12.2118
numer	-12.2118
▁ethic	-12.2118
▁bias	-12.2118
▁coke	-12.2119
▁expressway	-12.212
▁Law	-12.212
▁absolve	-12.212
▁Dogs	-12.2121
▁courageous	-12.2121
▁colorful	-12.2122
▁coop	-12.2123
▁Tree	-12.2125
▁realise	-12.2131
▁cordial	-12.2132
▁err	-12.2142
▁Lee	-12.2148
corn	-12.2152
▁sucker	-12.2156
▁Action	-12.2158
having	-12.2168
lib	-12.2184
active	-12.2185
▁chime	-12.2201
▁Yama	-12.2233
▁logical	-12.2251
artial	-12.2263
▁specialize	-12.2274
▁shar	-12.2275
▁observ	-12.2292
▁dai	-12.2313
▁whipp	-12.2345
▁thankful	-12.239
▁entr	-12.2436
▁whistl	-12.2486
▁reconfirm	-12.2542
maybe	-12.2577
▁Spa	-12.2722
armed	-12.2833
eemed	-12.2895
▁medi	-12.29
25	-12.2906
atory	-12.2925
▁Vo	-12.2926
more	-12.3081
lash	-12.32
▁beginner	-12.338
▁produc	-12.3403
▁ratio	-12.3403
▁diploma	-12.3456
▁disappoint	-12.3468
town	-12.3469
▁ignor	-12.347
paper	-12.3481
nounced	-12.3483
covered	-12.3483
quality	-12.3484
Hello	-12.3484
storm	-12.3484
just	-12.3484
condition	-12.3485
bird	-12.3485
said	-12.3486
balance	-12.3486
Get	-12.3488
wash	-12.3489
▁introduc	-12.3491
▁furnish	-12.3499
▁announce	-12.35
▁graph	-12.3501
sembl	-12.3501
▁Russia	-12.3503
▁illustrate	-12.3508
▁discharge	-12.3508
▁organize	-12.3509
▁bleed	-12.3512
jection	-12.3513
▁tid	-12.3515
mokers	-12.3516
fficiency	-12.3525
▁convict	-12.3525
▁squa	-12.3528
reams	-12.3537
atience	-12.354
▁multi	-12.354
trawberries	-12.354
xcessive	-12.354
ircumstances	-12.354
▁loyal	-12.354
▁applica	-12.354
▁handicap	-12.354
ecutive	-12.3541
emocracy	-12.3541
▁clasp	-12.3541
▁coincide	-12.3541
▁deteriorat	-12.3541
▁murmur	-12.3541
▁telegraph	-12.3541
Charge	-12.3541
aesthetic	-12.3541
grandchildren	-12.3541
sector	-12.3541
subordinate	-12.3541
trustworthy	-12.3541
▁Bridge	-12.3541
▁Catholic	-12.3541
▁Church	-12.3541
▁Clint	-12.3541
▁Custom	-12.3541
▁Exercise	-12.3541
▁Festival	-12.3541
▁Hakata	-12.3541
▁Hollywood	-12.3541
▁Hyogo	-12.3541
▁Murder	-12.3541
▁Muslim	-12.3541
▁Naomi	-12.3541
▁Patty	-12.3541
▁Progress	-12.3541
▁Revolution	-12.3541
▁Shinano	-12.3541
▁Shizuoka	-12.3541
▁Simon	-12.3541
▁Soseki	-12.3541
▁Vienna	-12.3541
▁Wilson	-12.3541
▁Yoshio	-12.3541
▁acquisition	-12.3541
▁acquitted	-12.3541
▁administer	-12.3541
▁ambiguous	-12.3541
▁armchair	-12.3541
▁ascertain	-12.3541
▁avenue	-12.3541
▁babysitter	-12.3541
▁baptize	-12.3541
▁behaviour	-12.3541
▁blister	-12.3541
▁brink	-12.3541
▁brook	-12.3541
▁centuries	-12.3541
▁commodity	-12.3541
▁conservation	-12.3541
▁cuisine	-12.3541
▁curriculum	-12.3541
▁dazzl	-12.3541
▁definition	-12.3541
▁diagram	-12.3541
▁disregard	-12.3541
▁divine	-12.3541
▁diving	-12.3541
▁drugstore	-12.3541
▁elaborate	-12.3541
▁embarrassment	-12.3541
▁enclose	-12.3541
▁enforced	-12.3541
▁fantastic	-12.3541
▁foodstuffs	-12.3541
▁frequency	-12.3541
▁imaginary	-12.3541
▁imaginative	-12.3541
▁impractical	-12.3541
▁impudent	-12.3541
▁inadequate	-12.3541
▁inconvenient	-12.3541
▁inexpensive	-12.3541
▁interior	-12.3541
▁jelly	-12.3541
▁kennel	-12.3541
▁labour	-12.3541
▁lobby	-12.3541
▁malice	-12.3541
▁marble	-12.3541
▁melancholy	-12.3541
▁mobile	-12.3541
▁moderation	-12.3541
▁monotonous	-12.3541
▁narrative	-12.3541
▁necessities	-12.3541
▁nursing	-12.3541
▁oppressed	-12.3541
▁paragraph	-12.3541
▁parliament	-12.3541
▁patron	-12.3541
▁perception	-12.3541
▁perspective	-12.3541
▁persuasi	-12.3541
▁pistol	-12.3541
▁practise	-12.3541
▁predecessor	-12.3541
▁prestig	-12.3541
▁prettier	-12.3541
▁probability	-12.3541
▁prophecy	-12.3541
▁prudent	-12.3541
▁reconsider	-12.3541
▁registration	-12.3541
▁remedy	-12.3541
▁residents	-12.3541
▁retail	-12.3541
▁revolve	-12.3541
▁ridicule	-12.3541
▁sacrifice	-12.3541
▁script	-12.3541
▁shrank	-12.3541
▁skeleton	-12.3541
▁sociable	-12.3541
▁sophisticated	-12.3541
▁tactics	-12.3541
▁terrified	-12.3541
▁tulips	-12.3541
▁tyrant	-12.3541
▁unprecedented	-12.3541
▁wagon	-12.3541
▁watermelon	-12.3541
▁Caesar	-12.3541
▁Crime	-12.3541
▁Finish	-12.3541
▁Kanda	-12.3541
▁National	-12.3541
▁Pizza	-12.3541
▁blink	-12.3541
▁clarify	-12.3541
▁cockroach	-12.3541
▁dominant	-12.3541
▁meditation	-12.3541
▁natto	-12.3541
▁overestimate	-12.3541
▁phase	-12.3541
▁porch	-12.3541
▁sentiment	-12.3541
▁spiritual	-12.3541
▁virus	-12.3541
▁wilderness	-12.3541
▁Akiko	-12.3541
▁Develop	-12.3541
▁Meeting	-12.3541
▁Tennis	-12.3541
▁Throw	-12.3541
▁Woman	-12.3541
▁assault	-12.3541
▁chuck	-12.3541
▁grop	-12.3541
▁lilies	-12.3541
▁orchard	-12.3541
▁participants	-12.3541
▁prominen	-12.3541
▁roused	-12.3541
▁spark	-12.3541
▁spontane	-12.3541
▁stitch	-12.3541
▁therapy	-12.3541
▁Heaven	-12.3541
▁aimlessly	-12.3541
▁eminen	-12.3541
▁fax	-12.3541
▁inquiring	-12.3541
▁ninth	-12.3541
yuki	-12.3541
▁referee	-12.3541
▁Flower	-12.3541
▁True	-12.3541
▁converse	-12.3541
▁dramatist	-12.3541
▁lord	-12.3541
▁patch	-12.3541
▁presume	-12.3541
▁jest	-12.3541
▁divert	-12.3541
▁swans	-12.3541
▁nightmare	-12.3541
▁fried	-12.3541
▁stout	-12.3541
▁Peru	-12.3541
▁particle	-12.3541
▁alleged	-12.3541
▁soothe	-12.3541
▁mask	-12.3541
▁Lady	-12.3541
▁delete	-12.3541
▁trag	-12.3541
▁costume	-12.3541
▁gallery	-12.3541
▁Fortun	-12.3541
▁Horse	-12.3541
▁Burn	-12.3541
▁crunch	-12.3541
nterest	-12.3541
▁ditch	-12.3542
▁Kimura	-12.3542
▁Attach	-12.3542
▁cloak	-12.3542
▁Shinji	-12.3542
▁prolong	-12.3542
▁sobbing	-12.3542
▁torture	-12.3542
▁Danger	-12.3542
▁copied	-12.3542
▁flashlight	-12.3542
▁loyalty	-12.3542
▁exaggeration	-12.3542
▁idly	-12.3542
▁slapped	-12.3542
▁revel	-12.3542
▁restrictions	-12.3542
▁disposition	-12.3542
▁trout	-12.3542
▁Local	-12.3542
▁negligence	-12.3542
▁Step	-12.3543
▁Pochi	-12.3543
▁boost	-12.3543
▁tiptoe	-12.3543
▁exclaimed	-12.3543
▁dinosaur	-12.3543
▁dictate	-12.3543
▁keyboard	-12.3543
▁fuck	-12.3543
▁Moreover	-12.3543
▁discoveries	-12.3544
▁outfit	-12.3544
▁wagg	-12.3544
▁defendant	-12.3544
▁gown	-12.3544
▁flutter	-12.3545
▁standpoint	-12.3545
suke	-12.3545
▁Yuri	-12.3545
▁fluid	-12.3546
▁Director	-12.3546
Friendship	-12.3546
▁avenge	-12.3546
▁snar	-12.3547
▁correspondent	-12.3547
▁vic	-12.3547
▁aspire	-12.3547
▁Hide	-12.3548
▁bait	-12.3549
▁Manag	-12.3551
▁Chu	-12.3551
▁studio	-12.3553
▁overeat	-12.3554
▁shit	-12.3554
▁Corporation	-12.3555
▁insufficien	-12.3557
Donald	-12.3603
lapped	-12.3607
▁Medica	-12.3643
▁bash	-12.3647
immer	-12.3654
teak	-12.3687
▁confer	-12.3694
duce	-12.3714
cited	-12.378
▁distribut	-12.3839
▁hugg	-12.3843
▁Sanda	-12.388
▁rum	-12.4
asoline	-12.413
talled	-12.4269
▁rul	-12.4459
▁Suppl	-12.4648
oliticians	-12.4664
tribute	-12.4813
▁continu	-12.4821
▁architectur	-12.4911
roller	-12.4923
lcohol	-12.5002
▁Stea	-12.5044
▁colleague	-12.5045
▁interval	-12.5045
▁resource	-12.5047
ograph	-12.5076
▁Electric	-12.5095
▁escap	-12.5148
quarter	-12.5151
praise	-12.5151
flower	-12.5151
blood	-12.5151
Because	-12.5151
Come	-12.5152
woman	-12.5152
Japanese	-12.5152
good	-12.5152
Look	-12.5152
lived	-12.5152
course	-12.5159
▁appoint	-12.5166
▁arrest	-12.5167
▁explode	-12.5175
▁injure	-12.5176
▁denie	-12.5182
arrots	-12.52
▁mosquito	-12.5203
▁linguist	-12.5206
▁journal	-12.5207
aseball	-12.5207
ootball	-12.5207
▁vigor	-12.5207
▁teenage	-12.5207
▁patriot	-12.5207
welve	-12.5207
▁abhor	-12.5208
▁cigar	-12.5208
▁imprison	-12.5208
▁obstetric	-12.5208
▁tubercul	-12.5208
compatible	-12.5208
curred	-12.5208
discriminate	-12.5208
ecrecy	-12.5208
mbassy	-12.5208
violet	-12.5208
▁Albert	-12.5208
▁Amazon	-12.5208
▁Anthony	-12.5208
▁Avenue	-12.5208
▁Captain	-12.5208
▁Chiba	-12.5208
▁Cloud	-12.5208
▁Company	-12.5208
▁Dennis	-12.5208
▁Earthquake	-12.5208
▁Employ	-12.5208
▁Evans	-12.5208
▁Foundation	-12.5208
▁Hakone	-12.5208
▁Jupiter	-12.5208
▁Kansai	-12.5208
▁Karuizawa	-12.5208
▁Koizumi	-12.5208
▁Kyoko	-12.5208
▁Matsuyama	-12.5208
▁Ministry	-12.5208
▁Misfortune	-12.5208
▁Moscow	-12.5208
▁Naples	-12.5208
▁Opinion	-12.5208
▁Preventi	-12.5208
▁Prize	-12.5208
▁Probably	-12.5208
▁Research	-12.5208
▁Service	-12.5208
▁Shanghai	-12.5208
▁Shinkansen	-12.5208
▁Square	-12.5208
▁Swallow	-12.5208
▁accompaniment	-12.5208
▁accredit	-12.5208
▁anxieties	-12.5208
▁ashtray	-12.5208
▁assimilate	-12.5208
▁astronomer	-12.5208
▁barricade	-12.5208
▁benefactor	-12.5208
▁blizzard	-12.5208
▁blurred	-12.5208
▁brooch	-12.5208
▁cassette	-12.5208
▁celebration	-12.5208
▁charter	-12.5208
▁chronic	-12.5208
▁circuit	-12.5208
▁circulate	-12.5208
▁colony	-12.5208
▁communism	-12.5208
▁complement	-12.5208
▁completion	-12.5208
▁comprehension	-12.5208
▁confusing	-12.5208
▁consoled	-12.5208
▁context	-12.5208
▁crooked	-12.5208
▁custody	-12.5208
▁database	-12.5208
▁debating	-12.5208
▁deceased	-12.5208
▁digital	-12.5208
▁disorder	-12.5208
▁dizzy	-12.5208
▁dormitory	-12.5208
▁eccentric	-12.5208
▁economist	-12.5208
▁eloquence	-12.5208
▁evaluat	-12.5208
▁evaporate	-12.5208
▁evolve	-12.5208
▁fabric	-12.5208
▁fabulous	-12.5208
▁facility	-12.5208
▁feminine	-12.5208
▁garlic	-12.5208
▁gigantic	-12.5208
▁gloomy	-12.5208
▁grinned	-12.5208
▁grumble	-12.5208
▁grumbling	-12.5208
▁gymnasium	-12.5208
▁hatchet	-12.5208
▁heaviest	-12.5208
▁hoarse	-12.5208
▁hollow	-12.5208
▁iceberg	-12.5208
▁idol	-12.5208
▁imperfect	-12.5208
▁inexperience	-12.5208
▁injuries	-12.5208
▁injustice	-12.5208
▁instructor	-12.5208
▁jackpot	-12.5208
▁kangaroo	-12.5208
▁knack	-12.5208
▁liberal	-12.5208
▁motivation	-12.5208
▁navigation	-12.5208
▁obedience	-12.5208
▁pamphlet	-12.5208
▁paradise	-12.5208
▁peaches	-12.5208
▁pedestrian	-12.5208
▁perplexed	-12.5208
▁pessimist	-12.5208
▁pharmacy	-12.5208
▁pneumonia	-12.5208
▁possibilities	-12.5208
▁pregnancy	-12.5208
▁province	-12.5208
▁pudding	-12.5208
▁recital	-12.5208
▁regain	-12.5208
▁reproach	-12.5208
▁retain	-12.5208
▁reunion	-12.5208
▁sailboat	-12.5208
▁seashore	-12.5208
▁shampoo	-12.5208
▁shogi	-12.5208
▁smog	-12.5208
▁societies	-12.5208
▁sociology	-12.5208
▁solitary	-12.5208
▁sovereign	-12.5208
▁spacious	-12.5208
▁staple	-12.5208
▁streak	-12.5208
▁striking	-12.5208
▁substantial	-12.5208
▁sukiyaki	-12.5208
▁tariffs	-12.5208
▁terrific	-12.5208
▁tranquil	-12.5208
▁transmission	-12.5208
▁tyranny	-12.5208
▁universal	-12.5208
▁universities	-12.5208
▁visual	-12.5208
▁vowe	-12.5208
▁Grand	-12.5208
▁beneficial	-12.5208
▁distort	-12.5208
▁enrich	-12.5208
▁gravity	-12.5208
▁inquiries	-12.5208
▁maze	-12.5208
▁nagging	-12.5208
▁preference	-12.5208
▁spicy	-12.5208
▁thrift	-12.5208
ambling	-12.5208
▁Israel	-12.5208
▁mugg	-12.5208
▁strap	-12.5208
▁Cooking	-12.5208
▁bookcase	-12.5208
▁Enter	-12.5208
▁Kuni	-12.5208
▁Micro	-12.5208
▁creation	-12.5208
▁pierce	-12.5208
strich	-12.5208
▁harp	-12.5208
▁incentive	-12.5208
▁meadow	-12.5208
▁standstill	-12.5208
▁mourn	-12.5208
▁Davis	-12.5208
▁stack	-12.5208
▁persevere	-12.5208
▁whirl	-12.5208
▁backyard	-12.5208
▁Edward	-12.5208
▁foresee	-12.5208
▁Way	-12.5208
▁tacks	-12.5208
▁tread	-12.5208
▁pledge	-12.5208
▁roam	-12.5208
nformed	-12.5208
▁seasick	-12.5208
▁solemn	-12.5208
▁Stone	-12.5208
▁implying	-12.5208
▁devise	-12.5208
▁shoppers	-12.5208
▁patriotism	-12.5208
▁butcher	-12.5208
▁cynic	-12.5208
▁Kind	-12.5208
▁Boeing	-12.5208
▁fatter	-12.5209
▁leftovers	-12.5209
▁pedal	-12.5209
▁meditate	-12.5209
ternity	-12.5209
▁Sony	-12.5209
▁mold	-12.521
▁lodge	-12.521
▁dominate	-12.521
▁canoe	-12.521
▁itchy	-12.521
▁nominate	-12.521
▁hound	-12.521
▁Cherr	-12.5211
▁Pip	-12.5211
▁shrug	-12.5211
▁Memori	-12.5213
▁regime	-12.5215
▁toleran	-12.5216
▁Junk	-12.522
iscretion	-12.5221
▁gem	-12.5228
▁captiv	-12.5231
▁judg	-12.5241
anagement	-12.525
▁Tea	-12.5278
▁Yoshik	-12.5287
dustrialization	-12.5352
rossed	-12.5381
osity	-12.5424
evertheless	-12.5439
▁fisherm	-12.5464
elations	-12.5597
▁muc	-12.5615
▁justifie	-12.5707
rthern	-12.5727
▁misunderstand	-12.5766
ompetition	-12.5951
uffe	-12.612
irplanes	-12.6151
▁via	-12.6294
▁unfit	-12.6441
10000	-12.648
comparable	-12.6521
tempered	-12.6646
solved	-12.6781
▁agricultur	-12.6812
▁Laugh	-12.69
fashioned	-12.6903
▁radioactiv	-12.6995
gross	-12.7
ttention	-12.7003
▁promot	-12.7014
▁twentie	-12.7043
▁Word	-12.7046
lection	-12.7061
etched	-12.7088
▁reluctan	-12.7123
▁voluntar	-12.7124
▁deceiv	-12.7134
friend	-12.7141
what	-12.7143
significant	-12.715
occupied	-12.715
collar	-12.715
qualifie	-12.715
processor	-12.7151
guard	-12.7151
Good	-12.7151
broken	-12.7152
famous	-12.7152
foot	-12.7152
built	-12.7152
nothing	-12.7152
▁Leav	-12.7158
efinitely	-12.716
high	-12.7161
▁depress	-12.7163
conceiv	-12.7167
▁blond	-12.7169
▁revive	-12.7175
▁conclude	-12.7175
▁emerge	-12.7176
▁pollute	-12.7176
▁arouse	-12.7176
▁cord	-12.7176
▁relate	-12.7176
obedient	-12.7178
▁cultivat	-12.7191
ubtract	-12.7195
▁fea	-12.7196
▁greed	-12.7196
▁emergenc	-12.7196
▁Honest	-12.7196
chille	-12.7201
therwise	-12.7206
reakfast	-12.7207
atigue	-12.7207
eldom	-12.7207
eggar	-12.7207
▁beauti	-12.7207
obbing	-12.7207
▁Access	-12.7208
▁circum	-12.7208
▁constrain	-12.7208
▁obsess	-12.7208
▁prosecut	-12.7208
▁snail	-12.7208
▁sniff	-12.7208
▁stammer	-12.7208
▁stoop	-12.7208
conspiracy	-12.7208
ealousy	-12.7208
etroleum	-12.7208
hizuko	-12.7208
isarmament	-12.7208
misphere	-12.7208
rithmetic	-12.7208
▁Arabic	-12.7208
▁Astronom	-12.7208
▁Charlie	-12.7208
▁Chopin	-12.7208
▁Committee	-12.7208
▁Congratulations	-12.7208
▁Critic	-12.7208
▁Culture	-12.7208
▁Economic	-12.7208
▁Enough	-12.7208
▁Eventually	-12.7208
▁Fashion	-12.7208
▁Gorilla	-12.7208
▁Grandpa	-12.7208
▁Guinea	-12.7208
▁Hirayama	-12.7208
▁Hiroko	-12.7208
▁Holmes	-12.7208
▁Hudson	-12.7208
▁Jenny	-12.7208
▁Kanazawa	-12.7208
▁Luciano	-12.7208
▁Mediterranean	-12.7208
▁Mexican	-12.7208
▁Milton	-12.7208
▁Montgomery	-12.7208
▁Mulligan	-12.7208
▁Museum	-12.7208
▁NTT	-12.7208
▁Niigata	-12.7208
▁Oedipus	-12.7208
▁Orient	-12.7208
▁Philosoph	-12.7208
▁Rabbi	-12.7208
▁Reagan	-12.7208
▁Renaissance	-12.7208
▁Representative	-12.7208
▁Republican	-12.7208
▁Security	-12.7208
▁Seiko	-12.7208
▁Siberia	-12.7208
▁Socrates	-12.7208
▁Spider	-12.7208
▁Strait	-12.7208
▁Tamori	-12.7208
▁Technical	-12.7208
▁abbreviat	-12.7208
▁accusation	-12.7208
▁advisable	-12.7208
▁aloof	-12.7208
▁appease	-12.7208
▁appliance	-12.7208
▁aristocrat	-12.7208
▁assumption	-12.7208
▁bandwagon	-12.7208
▁barbecue	-12.7208
▁barometer	-12.7208
▁bouquet	-12.7208
▁bulb	-12.7208
▁category	-12.7208
▁cocktail	-12.7208
▁column	-12.7208
▁comprise	-12.7208
▁compulsory	-12.7208
▁conceit	-12.7208
▁concession	-12.7208
▁configuration	-12.7208
▁congestion	-12.7208
▁consensus	-12.7208
▁contradiction	-12.7208
▁cricket	-12.7208
▁criteri	-12.7208
▁crouch	-12.7208
▁cunning	-12.7208
▁deficien	-12.7208
▁devastat	-12.7208
▁diarrhea	-12.7208
▁doorknob	-12.7208
▁emissions	-12.7208
▁equate	-12.7208
▁fertile	-12.7208
▁fragile	-12.7208
▁garment	-12.7208
▁geometry	-12.7208
▁granddaughter	-12.7208
▁hairdresser	-12.7208
▁hockey	-12.7208
▁indifference	-12.7208
▁inspiration	-12.7208
▁intellect	-12.7208
▁invoice	-12.7208
▁jaw	-12.7208
▁knob	-12.7208
▁legislation	-12.7208
▁lodging	-12.7208
▁magnitude	-12.7208
▁messenger	-12.7208
▁metaphor	-12.7208
▁microwave	-12.7208
▁migrate	-12.7208
▁misconduct	-12.7208
▁nonetheless	-12.7208
▁offspring	-12.7208
▁omelet	-12.7208
▁pachinko	-12.7208
▁pioneer	-12.7208
▁pirates	-12.7208
▁productivity	-12.7208
▁psychologist	-12.7208
▁purple	-12.7208
▁qualities	-12.7208
▁reassur	-12.7208
▁recycle	-12.7208
▁refined	-12.7208
▁reflexes	-12.7208
▁refusing	-12.7208
▁relativity	-12.7208
▁residence	-12.7208
▁restructuring	-12.7208
▁reverence	-12.7208
▁revision	-12.7208
▁salmon	-12.7208
▁samurai	-12.7208
▁sashimi	-12.7208
▁screech	-12.7208
▁scribbl	-12.7208
▁sculpture	-12.7208
▁segregation	-12.7208
▁seminar	-12.7208
▁skyscraper	-12.7208
▁spectacle	-12.7208
▁stagger	-12.7208
▁starvation	-12.7208
▁sunglasses	-12.7208
▁temporarily	-12.7208
▁traits	-12.7208
▁twigs	-12.7208
▁twilight	-12.7208
▁unfavorable	-12.7208
▁unhappiness	-12.7208
▁unnecessar	-12.7208
▁unreliable	-12.7208
▁unsuccessful	-12.7208
▁unthink	-12.7208
▁unwise	-12.7208
▁variable	-12.7208
▁windowpane	-12.7208
▁workaholic	-12.7208
tumbling	-12.7208
▁ALS	-12.7208
▁Class	-12.7208
▁Environment	-12.7208
▁Tigers	-12.7208
▁backfired	-12.7208
▁buffalo	-12.7208
▁buffet	-12.7208
▁cozy	-12.7208
▁curb	-12.7208
▁enchant	-12.7208
▁historian	-12.7208
▁honour	-12.7208
▁librari	-12.7208
▁mechanism	-12.7208
▁mortgage	-12.7208
▁pavement	-12.7208
▁perspir	-12.7208
▁qualify	-12.7208
▁sneeze	-12.7208
▁stereotyp	-12.7208
▁Akita	-12.7208
▁Silk	-12.7208
▁derailed	-12.7208
▁ebb	-12.7208
▁presumpt	-12.7208
▁shrewd	-12.7208
▁warehouse	-12.7208
pulated	-12.7208
▁Asuka	-12.7208
▁Further	-12.7208
▁enlarge	-12.7208
▁misprints	-12.7208
▁solitude	-12.7208
▁quiver	-12.7208
guchi	-12.7208
▁Airlines	-12.7208
▁daze	-12.7208
▁feud	-12.7208
▁metropoli	-12.7208
▁rewrit	-12.7208
▁subdue	-12.7208
▁thrive	-12.7208
▁compartment	-12.7208
▁escalat	-12.7208
▁claws	-12.7208
▁assembly	-12.7208
▁insane	-12.7208
▁smash	-12.7208
▁cartoon	-12.7208
▁summon	-12.7208
▁warrior	-12.7208
▁berries	-12.7208
▁knel	-12.7208
▁luncheon	-12.7208
▁Degas	-12.7208
▁descent	-12.7208
▁peck	-12.7208
▁Louis	-12.7208
▁coarse	-12.7208
▁Rumor	-12.7208
▁Tani	-12.7208
▁concede	-12.7208
▁dismal	-12.7208
▁peel	-12.7208
▁bawl	-12.7208
▁Ikeda	-12.7208
▁Molly	-12.7208
aughty	-12.7208
▁compile	-12.7208
▁Mitsu	-12.7208
▁Tonight	-12.7208
▁Slave	-12.7208
▁chaos	-12.7208
uiet	-12.7208
▁surg	-12.7209
arelessness	-12.7209
recept	-12.7209
q	-14.331
v	-14.3311
