<unk>	0
<s>	0
</s>	0
。	-2.12282
▁	-3.24062
は	-3.83299
の	-3.85235
、	-4.02075
を	-4.06134
に	-4.1193
が	-4.2658
▁彼は	-4.59933
で	-4.94513
と	-5.03382
た	-5.1613
した	-5.22365
▁私は	-5.24904
だ	-5.33912
▁彼女は	-5.36857
か	-5.59141
な	-5.60674
▁その	-5.61202
も	-5.65066
です	-5.72465
から	-5.73134
る	-5.74083
い	-5.75017
▁この	-5.87714
する	-5.93072
し	-5.99681
て	-6.02117
った	-6.09116
その	-6.12181
ら	-6.21821
には	-6.26713
よ	-6.2692
り	-6.27728
である	-6.31833
ない	-6.36031
して	-6.37082
く	-6.37381
▁彼の	-6.40418
している	-6.43156
お	-6.4485
▁彼らは	-6.46626
彼は	-6.51934
だった	-6.52709
って	-6.5747
1	-6.59912
ます	-6.60107
き	-6.67203
いた	-6.69037
私は	-6.69587
ている	-6.71181
▁私たちは	-6.71729
人	-6.722
す	-6.75558
う	-6.76667
さ	-6.78748
や	-6.83269
なかった	-6.83754
がある	-6.84743
2	-6.86232
だろう	-6.88139
ね	-6.88805
▁あなたは	-6.91254
大	-6.92663
わ	-6.92892
▁彼が	-6.93722
んだ	-6.94393
年	-6.96023
一	-6.96453
つ	-6.96539
私の	-6.97935
まで	-6.98242
み	-6.9825
ま	-6.99098
いる	-7.00354
?	-7.01707
▁私の	-7.02251
この	-7.02766
こと	-7.03069
彼の	-7.03386
ですか	-7.04514
ました	-7.05084
」	-7.07204
ので	-7.08121
ことを	-7.08826
なさい	-7.08862
▁君は	-7.1142
より	-7.11745
時	-7.12827
日	-7.13476
め	-7.14059
っている	-7.14454
出	-7.14595
よく	-7.1626
へ	-7.16501
という	-7.16665
見	-7.17222
こ	-7.17934
3	-7.18331
時間	-7.21257
された	-7.21801
ス	-7.22573
話	-7.22825
では	-7.25535
あ	-7.25966
とても	-7.26261
よい	-7.26965
彼女は	-7.28543
手	-7.28978
ー	-7.29326
ある	-7.30919
私に	-7.30926
になった	-7.31398
ではない	-7.32036
もの	-7.33147
ル	-7.33398
分	-7.34264
のですか	-7.34377
いい	-7.34388
本	-7.34864
ン	-7.34921
のは	-7.35312
ん	-7.36162
け	-7.3674
え	-7.37178
ことは	-7.37285
ほど	-7.38006
▁彼女の	-7.38353
でしょう	-7.39588
ご	-7.39869
中	-7.40439
のか	-7.41743
▁あの	-7.41928
ク	-7.4236
国	-7.42731
れ	-7.43354
物	-7.43832
ていた	-7.44208
ように	-7.44415
▁それは	-7.44902
ば	-7.46159
通	-7.49038
よう	-7.49302
します	-7.49454
せ	-7.4989
気	-7.50461
何	-7.51104
ください	-7.51462
彼に	-7.51766
家	-7.52072
新しい	-7.52345
人の	-7.52709
っ	-7.52822
なら	-7.52843
子	-7.52918
していた	-7.52996
▁「	-7.53683
10	-7.5377
になる	-7.53772
でも	-7.53862
5	-7.54265
とき	-7.54599
います	-7.55353
ますか	-7.56296
それを	-7.57038
金	-7.57213
について	-7.57306
▁私が	-7.58325
目	-7.60247
かった	-7.61243
月	-7.61569
▁我々は	-7.61949
として	-7.62568
人は	-7.62754
考え	-7.62893
事	-7.63184
▁私達は	-7.63564
生	-7.63694
数	-7.65018
をした	-7.6539
▁あなたの	-7.65535
もう	-7.65569
ラ	-7.66281
自分の	-7.66353
時に	-7.66391
ト	-7.66836
!	-7.67373
む	-7.68568
行	-7.68858
イ	-7.68963
▁彼はその	-7.70684
前に	-7.71199
水	-7.71239
しない	-7.72839
今	-7.73575
上	-7.73768
がない	-7.73852
者	-7.73967
彼が	-7.74212
▁これは	-7.75079
口	-7.75096
すぐに	-7.75462
たい	-7.76511
なんて	-7.76728
回	-7.76973
ず	-7.7703
会	-7.77382
ち	-7.78445
じ	-7.7884
彼を	-7.78901
心	-7.79878
方	-7.80815
後	-7.80987
られた	-7.81924
と思う	-7.82295
力	-7.82392
▁彼女が	-7.83426
良い	-7.83729
そう	-7.84499
不	-7.84593
いつも	-7.85027
び	-7.85117
あなたの	-7.85224
下さい	-7.85425
語	-7.85522
木	-7.85651
リ	-7.85829
っていた	-7.85997
なければならない	-7.86004
ものだ	-7.86215
着	-7.86447
できる	-7.87501
体	-7.88538
▁君の	-7.89461
6	-7.89743
もっと	-7.89991
的な	-7.90394
ろ	-7.90484
ために	-7.90521
彼女の	-7.90616
大きな	-7.90688
まだ	-7.90881
彼	-7.90886
下	-7.91104
カ	-7.91571
道	-7.9212
いて	-7.92292
ところ	-7.93332
そ	-7.93356
あの	-7.93997
のです	-7.94057
地	-7.94057
はとても	-7.94287
にも	-7.94586
私	-7.9519
ません	-7.95369
4	-7.95589
用	-7.96107
いない	-7.9639
のために	-7.96466
旅行	-7.96672
であった	-7.96725
多くの	-7.96984
によって	-7.97238
仕事	-7.9795
私を	-7.98158
前	-7.98338
よりも	-7.98392
される	-7.98447
間	-7.98673
悪	-7.98807
しい	-7.98896
すぐ	-7.99296
夜	-7.99402
ア	-7.99497
成功	-7.99732
度	-8.00505
名	-8.00654
長	-8.00702
人が	-8.00827
「	-8.00877
できない	-8.01262
問題	-8.01557
らない	-8.02211
死	-8.02236
学	-8.02398
かもしれない	-8.02573
しなさい	-8.02631
電話	-8.02696
面	-8.02702
ドル	-8.02852
山	-8.04515
外	-8.04528
私が	-8.04709
ど	-8.05447
ています	-8.05559
高	-8.05562
車	-8.05567
何か	-8.05737
愛	-8.05821
をする	-8.0633
チ	-8.06334
とは	-8.06355
所	-8.0673
また	-8.06864
少し	-8.07064
作	-8.07222
仕事を	-8.07477
しました	-8.0757
ぶ	-8.07884
的	-8.08194
ひ	-8.08307
家に	-8.08318
花	-8.08381
・	-8.08398
ことに	-8.08626
ほとんど	-8.08923
川	-8.09034
君の	-8.09327
成	-8.09724
でした	-8.09982
▁父は	-8.10046
れば	-8.10168
歳	-8.10223
▁もし	-8.10246
行く	-8.1029
しています	-8.10303
しか	-8.1032
それ	-8.10611
られる	-8.10965
発	-8.11111
を見	-8.11303
部屋	-8.12034
▁お	-8.12129
彼女に	-8.12161
に行く	-8.12395
来る	-8.12655
ッ	-8.12727
ド	-8.13132
ぎ	-8.13191
みんな	-8.13983
▁私はその	-8.14272
7	-8.14332
食	-8.14372
れた	-8.14629
はない	-8.14646
言った	-8.14713
ことが	-8.14747
ると	-8.14864
シ	-8.14867
あなた	-8.15132
げ	-8.15683
点	-8.16057
店	-8.16337
しなければならない	-8.16377
空	-8.16493
ずっと	-8.16569
美しい	-8.16584
そうだ	-8.16831
身	-8.16833
直	-8.17481
フ	-8.17564
出した	-8.17771
通り	-8.17877
てください	-8.18109
明日	-8.18272
音楽	-8.18362
二	-8.18467
風	-8.18662
▁僕は	-8.18979
があった	-8.19059
食べ	-8.19066
どう	-8.19187
部	-8.19221
だけ	-8.19297
友達	-8.19766
てしまった	-8.20229
書	-8.20393
なく	-8.21016
来	-8.21135
されている	-8.21181
取り	-8.2121
先生	-8.21301
んで	-8.21348
雨	-8.21359
場	-8.22147
ような	-8.22243
」「	-8.22428
小	-8.22819
新	-8.22822
▁トムは	-8.22932
あまり	-8.23243
きた	-8.24028
合	-8.24074
と言った	-8.24468
気が	-8.24954
▁もう	-8.25323
定	-8.25434
勉強	-8.25546
悪い	-8.25565
の中で	-8.25642
昨日	-8.25754
さん	-8.26063
何を	-8.26547
寝	-8.26762
内	-8.26801
ロ	-8.27081
コ	-8.27339
学生	-8.28003
があります	-8.28236
一人	-8.28256
来た	-8.28277
先	-8.28286
動	-8.2846
医者	-8.28778
言	-8.28822
男	-8.29023
品	-8.2914
▁あなたが	-8.29206
ふ	-8.29242
彼女	-8.29469
ようだ	-8.29963
友人	-8.30009
お金	-8.301
機	-8.30155
にある	-8.30235
急	-8.30249
私たちは	-8.30439
実	-8.30633
代	-8.30639
正	-8.30642
性	-8.30674
船	-8.30691
▁今日は	-8.31056
レ	-8.31591
ましたか	-8.31806
に行った	-8.3186
火	-8.32452
誰	-8.3284
足	-8.32914
手を	-8.32946
しなかった	-8.33478
明	-8.33577
▁君が	-8.33676
三	-8.33727
ばかり	-8.33741
家族	-8.33761
言う	-8.33774
ジ	-8.33988
たちは	-8.34145
法	-8.34213
早く	-8.34549
てきた	-8.34583
マ	-8.34603
々	-8.34836
ぞ	-8.34881
同じ	-8.34992
ことだ	-8.35478
立	-8.35516
と思います	-8.3554
解	-8.35562
グ	-8.35823
色	-8.35826
▁私たちの	-8.36104
必要	-8.36119
君は	-8.36122
本当に	-8.36181
行った	-8.36261
当	-8.36399
してください	-8.36438
高い	-8.36564
少年	-8.36659
▁今	-8.36743
理	-8.36883
無	-8.37001
金を	-8.37144
思い	-8.37199
ながら	-8.37323
生活	-8.37352
になって	-8.37486
非常に	-8.37499
エ	-8.37955
料理	-8.37985
者は	-8.38215
ため	-8.38384
たくさんの	-8.38528
タ	-8.38706
行き	-8.38718
いつ	-8.38735
重	-8.38923
彼らは	-8.3973
病気	-8.3973
服	-8.39829
私たちの	-8.39832
映画	-8.40633
お金を	-8.40644
話す	-8.4069
すべて	-8.40801
朝	-8.41012
若い	-8.41208
アメリカ	-8.41219
健康	-8.41307
人生	-8.41384
必ず	-8.41446
8	-8.41569
学校	-8.41641
いった	-8.41659
好きな	-8.41877
君	-8.42072
達	-8.42346
メ	-8.42395
今日	-8.42432
ブ	-8.42615
バ	-8.4283
本当	-8.43037
意	-8.43136
彼女を	-8.43198
言い	-8.43243
古い	-8.44213
子供	-8.44317
べ	-8.44459
事を	-8.4453
大変	-8.44535
海	-8.44659
ム	-8.44672
キ	-8.45068
ぐ	-8.45079
関係	-8.4522
ウ	-8.45286
リー	-8.45424
めた	-8.45519
て下さい	-8.45767
かな	-8.46116
妻	-8.46199
ませんか	-8.4623
を持っている	-8.46348
やった	-8.46423
テ	-8.46639
ましょう	-8.46849
毎日	-8.46876
これ	-8.46922
オ	-8.46992
そこに	-8.47243
をしている	-8.47298
返	-8.47418
入	-8.47551
しよう	-8.48081
日本	-8.48168
死んだ	-8.48236
ですね	-8.48324
新聞	-8.48451
知	-8.48506
させた	-8.48545
が好きだ	-8.48718
戦争	-8.48775
を取り	-8.4904
親	-8.49053
しく	-8.49325
息子	-8.49461
▁彼に	-8.49476
意見	-8.49517
手紙	-8.49565
東京	-8.49719
ついた	-8.4989
何も	-8.49978
人間	-8.49979
自分	-8.5048
猫	-8.506
消	-8.50643
はその	-8.5068
ここに	-8.50794
など	-8.50821
のため	-8.50863
全	-8.50989
動物	-8.51004
知らせ	-8.51174
けど	-8.51196
約	-8.51199
行動	-8.51276
▁明日	-8.51368
は私の	-8.51387
は何	-8.51794
有	-8.51862
いました	-8.51889
くれた	-8.51943
▁彼は自分の	-8.52088
すぎる	-8.52141
あった	-8.52238
全部	-8.52316
やって	-8.5237
ること	-8.52491
したい	-8.5257
べきだ	-8.5273
説明	-8.5283
▁昨日	-8.52849
本を	-8.52891
あなたに	-8.52907
られない	-8.53004
知っている	-8.53085
にとって	-8.53105
皆	-8.53136
大学	-8.53707
やめ	-8.53718
女性	-8.53857
▁母は	-8.53857
雪	-8.53921
ざ	-8.54059
英語を	-8.54444
つく	-8.54573
長い	-8.54592
ほ	-8.54648
町	-8.54965
答え	-8.55336
自	-8.55344
名前	-8.5539
始めた	-8.55463
だと	-8.55505
残	-8.55517
質問	-8.55563
熱	-8.55599
▁彼は私に	-8.5585
るように	-8.55917
最も	-8.5593
を見て	-8.55972
に対して	-8.56039
世	-8.56154
人に	-8.56338
▁彼には	-8.56372
反対	-8.56494
いなかった	-8.56572
君に	-8.56612
あなたは	-8.56638
生徒	-8.56679
近	-8.56802
▁彼	-8.56831
中に	-8.56866
計画	-8.57032
上げ	-8.5709
的に	-8.57093
きました	-8.57289
断	-8.5737
魚	-8.57425
小さな	-8.57426
▁これらの	-8.57928
犬	-8.58395
わからない	-8.58659
落ち	-8.58748
▁私には	-8.58762
サ	-8.5899
れる	-8.59266
村	-8.59327
全く	-8.59334
フランス語	-8.59345
以前	-8.59359
音	-8.59773
それは	-8.59787
▁私は彼の	-8.59826
しても	-8.59969
知らない	-8.59991
言って	-8.60002
たち	-8.60014
職	-8.60067
運転	-8.60235
話し	-8.60396
すること	-8.60598
世界	-8.60647
開	-8.60936
努力	-8.61127
まま	-8.6123
人だ	-8.61278
事は	-8.61324
させ	-8.61411
女	-8.61466
かどうか	-8.6158
私たちに	-8.61964
車を	-8.62
真	-8.62122
すれば	-8.62252
ちょうど	-8.62446
白	-8.62492
っています	-8.62574
頃	-8.62811
時代	-8.6295
くれ	-8.62953
夢	-8.63052
同	-8.63099
場所	-8.63293
ミ	-8.63309
でしょうか	-8.63461
列車	-8.63462
員	-8.63521
うまく	-8.63551
あり	-8.63562
運	-8.63742
苦	-8.64021
社	-8.64287
▁彼は私の	-8.64426
一番	-8.6443
週間	-8.64712
命	-8.64778
文	-8.64834
える	-8.64967
パ	-8.64972
幸せ	-8.65436
彼女が	-8.65454
歌	-8.65587
30	-8.65688
戦	-8.65796
役	-8.66062
イン	-8.66123
のように	-8.66164
るだろう	-8.66174
助け	-8.66234
肉	-8.66424
つき	-8.66511
んです	-8.66541
主	-8.66567
20	-8.66595
▁私	-8.66642
決して	-8.66698
事故	-8.66701
表	-8.66787
ぼ	-8.66852
線	-8.669
顔	-8.67092
いている	-8.67144
理解	-8.67423
▁私は彼に	-8.67435
るのは	-8.67482
ちょっと	-8.67612
いません	-8.67715
別	-8.67766
娘	-8.67912
種	-8.68026
ック	-8.68189
を見た	-8.6821
失敗	-8.68351
入れ	-8.68425
話を	-8.68449
一生懸命	-8.68493
どんな	-8.68632
達は	-8.68672
流	-8.68717
日に	-8.68808
▁ジョンは	-8.68831
歩いて	-8.68892
会う	-8.68976
ホテル	-8.69228
は彼の	-8.69294
立ち	-8.69406
多	-8.69527
へ行った	-8.69562
らしい	-8.69569
難しい	-8.6965
要	-8.69803
約束	-8.6982
だよ	-8.70021
▁これ	-8.70153
自分で	-8.70417
十	-8.70473
▁何	-8.70583
いく	-8.70633
忙しい	-8.70703
試験	-8.7104
後に	-8.71053
心配	-8.71423
他の	-8.71503
両親	-8.71554
ひどい	-8.71562
れない	-8.71576
言葉	-8.716
へ行く	-8.71658
元気	-8.71727
張	-8.71753
に住んでいる	-8.71825
楽	-8.71853
外国	-8.71922
便	-8.72246
放	-8.72419
戻	-8.72515
方法	-8.72567
えた	-8.72575
女の子	-8.72693
ダ	-8.72732
ドア	-8.72807
忘れ	-8.72811
破	-8.72871
にして	-8.72936
が好きです	-8.73013
転	-8.73048
渡	-8.73083
夏	-8.73106
引き	-8.73283
驚いた	-8.73312
金持ち	-8.73318
頭	-8.73348
▁彼女はその	-8.73414
きっと	-8.7346
テニス	-8.73471
交	-8.73697
ット	-8.73813
次	-8.73895
結婚	-8.7404
たら	-8.74087
指	-8.74181
ります	-8.74203
やる	-8.74269
どこ	-8.74332
食事	-8.74372
だから	-8.74516
幸福	-8.74646
見た	-8.7466
▁あなた	-8.74712
もない	-8.74724
かれ	-8.74742
書き	-8.74812
してくれた	-8.74818
英語	-8.75059
声	-8.75141
一つ	-8.75149
そんな	-8.7518
9	-8.75191
飲み	-8.75341
化	-8.75438
かい	-8.75476
▁そんな	-8.75535
場合	-8.75632
だれ	-8.75667
ないように	-8.75755
とも	-8.75842
絵	-8.76042
っと	-8.7605
ター	-8.76085
やすい	-8.7611
危険	-8.76123
何でも	-8.76189
母	-8.76226
なければ	-8.76243
子供たち	-8.76245
理由	-8.76321
鳥	-8.76472
天気	-8.76523
試合	-8.76631
ですよ	-8.7705
プ	-8.77086
手紙を	-8.77281
十分	-8.7741
学校に	-8.77413
出発	-8.77465
コンピューター	-8.77828
晩	-8.77915
授業	-8.7817
テレビ	-8.7849
研究	-8.78654
制	-8.7872
冬	-8.78756
小説	-8.78798
注意	-8.78844
ても	-8.79086
半	-8.79093
過ぎ	-8.79099
夕食	-8.79235
くて	-8.7928
するのは	-8.79337
▁私はこの	-8.79351
質	-8.79418
生き	-8.79631
敵	-8.79692
側	-8.79693
すばらしい	-8.79693
づ	-8.79741
なり	-8.79849
庭	-8.79916
選	-8.79927
受け	-8.79939
さんは	-8.8018
赤	-8.80308
公園	-8.80423
ナ	-8.80512
され	-8.80635
ズ	-8.80638
運動	-8.80668
正しい	-8.80692
すべての	-8.80717
美	-8.80744
夫	-8.80819
散歩	-8.80824
スト	-8.80826
と思った	-8.80924
たくさん	-8.81023
道を	-8.81052
トム	-8.81069
くる	-8.81196
▁私は彼が	-8.81224
できなかった	-8.81292
ガ	-8.81321
電車	-8.81506
感	-8.81508
英語の	-8.8169
まったく	-8.81714
はほとんど	-8.81721
▁この本は	-8.81739
はまだ	-8.81747
平	-8.81999
はどう	-8.82008
湖	-8.82074
教育	-8.82082
駅	-8.8225
かない	-8.82334
道路	-8.82383
出席	-8.82634
会社	-8.82702
対	-8.82755
使い	-8.82894
すべきだ	-8.82894
天	-8.82918
反	-8.8302
強い	-8.83026
あらゆる	-8.83042
の中に	-8.83244
車は	-8.83321
ハ	-8.83419
たいへん	-8.83531
なった	-8.837
持ち	-8.83816
難	-8.83889
論	-8.8389
失	-8.83896
▁君	-8.83943
送	-8.84058
の間	-8.84133
誰も	-8.84156
▁彼らの	-8.84174
して下さい	-8.84263
光	-8.8442
時計	-8.84462
19	-8.84531
ひどく	-8.84546
ようと	-8.84696
家の	-8.84711
らなかった	-8.85025
みな	-8.8506
降	-8.8506
ロンドン	-8.85103
こう	-8.85237
ニ	-8.85237
人を	-8.85265
メアリー	-8.85285
方が	-8.85328
つか	-8.85429
席	-8.85441
告	-8.85482
・・・	-8.85506
かなり	-8.85506
お母さん	-8.85507
議論	-8.85518
強	-8.85557
▁何か	-8.85563
利用	-8.8573
期	-8.85764
式	-8.85989
年間	-8.86016
社会	-8.86289
私たち	-8.86296
ていない	-8.86469
出す	-8.86472
橋	-8.86508
自転車	-8.86538
ことがある	-8.86568
箱	-8.86723
ありません	-8.86732
人々	-8.86762
提案	-8.86979
習慣	-8.87013
が多い	-8.87065
するだろう	-8.87124
出かけ	-8.87251
以上	-8.87308
野	-8.87325
経済	-8.87332
あります	-8.87427
すべき	-8.87449
カメラ	-8.87521
つの	-8.87566
一緒に	-8.8759
許	-8.87649
形	-8.88185
しかった	-8.88212
ということ	-8.88285
んでいる	-8.88378
取	-8.88541
すると	-8.88577
言うこと	-8.88592
ビ	-8.88914
歯	-8.88954
仕事に	-8.88967
屋	-8.8899
ケ	-8.88994
のですが	-8.89003
ペン	-8.89073
母親	-8.89108
がありますか	-8.89131
50	-8.89225
▁ご	-8.89296
飛行機	-8.89473
への	-8.8955
石	-8.89563
産	-8.89595
そんなに	-8.89755
するな	-8.89828
妹	-8.89947
案	-8.90066
パン	-8.90181
馬	-8.90311
経験	-8.90351
いだ	-8.90462
のだ	-8.9051
ってしまった	-8.90532
遅れ	-8.90594
をお	-8.90601
業	-8.90658
父	-8.90703
一人で	-8.90712
時間を	-8.90752
ものです	-8.90954
乗り	-8.91004
視	-8.91081
王	-8.91117
に違いない	-8.91148
ねばならない	-8.91148
てくれ	-8.91149
バス	-8.91166
少女	-8.91169
のような	-8.9119
▁先生は	-8.91218
に対する	-8.91252
記	-8.91277
クラス	-8.91302
られている	-8.91308
▁彼女	-8.9131
神	-8.91486
いっぱい	-8.9154
市	-8.91582
旅	-8.91631
はいつも	-8.91638
公	-8.91655
午後	-8.91664
撃	-8.91677
御	-8.91677
パリ	-8.91882
▁彼はいつも	-8.9202
売	-8.92135
気持ち	-8.92274
援助	-8.92296
初めて	-8.92392
ろう	-8.9244
勝	-8.92593
食べ物	-8.92618
罪	-8.92713
君が	-8.92865
目を	-8.93021
れて	-8.93031
正直	-8.93105
ときに	-8.93134
手に	-8.93164
合わせ	-8.93248
スポーツ	-8.93281
やり	-8.93296
デ	-8.93393
のだが	-8.93469
したら	-8.93584
様	-8.93598
利	-8.93653
させる	-8.93664
ボ	-8.937
起	-8.93709
気に	-8.93759
鳴	-8.93822
靴	-8.93857
得	-8.93976
るために	-8.94227
なので	-8.9432
近く	-8.94357
ツ	-8.94365
くなった	-8.94369
ヶ月	-8.94369
外出	-8.94402
広	-8.94448
教	-8.94457
相手	-8.94701
番	-8.94743
乗	-8.94788
賞	-8.94912
100	-8.94934
▁いつ	-8.95173
彼と	-8.95267
ほうがいい	-8.95271
京都	-8.95342
目に	-8.95385
走	-8.95506
▁最近	-8.9557
どの	-8.95583
かかった	-8.95592
▁こんな	-8.95833
そこで	-8.95946
満足	-8.95949
将来	-8.96019
安	-8.96079
休	-8.96144
進	-8.96268
好	-8.96294
彼らの	-8.96541
まるで	-8.96548
出来	-8.96639
いや	-8.96692
私には	-8.96737
選手	-8.96768
水を	-8.96901
ゆ	-8.97006
過	-8.97058
話した	-8.97089
量	-8.97124
連絡	-8.97128
買った	-8.97248
議	-8.97501
集	-8.97556
笑	-8.97563
偶然	-8.9769
飛び	-8.97712
楽しい	-8.97735
われた	-8.97839
先生は	-8.97879
暗	-8.9793
おい	-8.9814
両	-8.9821
真実	-8.98301
終わった	-8.98384
じゃ	-8.98385
▁1	-8.98445
風邪	-8.98569
お父さん	-8.98569
ネ	-8.98622
家を	-8.98679
てくれた	-8.98682
るのに	-8.98742
その仕事を	-8.98775
まず	-8.98784
居	-8.98821
降り	-8.98822
固	-8.98823
空港	-8.98852
野球	-8.98858
事実	-8.98879
銀行	-8.99135
しましょう	-8.992
暮らし	-8.99239
五	-8.99395
▁しかし	-8.99553
円	-8.99603
向	-8.99688
までに	-8.99769
減	-8.99969
期待	-8.99976
していない	-9.00064
テーブル	-9.00113
ドレス	-9.00114
なあ	-9.0026
れている	-9.00301
ビル	-9.0038
紙	-9.00443
僕の	-9.00459
そこ	-9.00471
素	-9.00529
始め	-9.00549
都市	-9.00549
良	-9.00559
年に	-9.00621
突然	-9.00689
時々	-9.00703
出し	-9.00752
▁メアリーは	-9.00804
会った	-9.00857
はありますか	-9.00947
ますよ	-9.01076
帽子	-9.01129
休み	-9.01133
窓	-9.01247
客	-9.01306
ではなかった	-9.01536
うちに	-9.01574
さえ	-9.01585
はもう	-9.01651
ける	-9.01674
馬鹿	-9.01715
しようと	-9.01832
わけ	-9.01988
仕	-9.02051
望	-9.02119
登	-9.02195
月に	-9.02275
すっかり	-9.02302
生まれ	-9.02348
意味	-9.02386
ぬ	-9.02491
に賛成	-9.02491
ニューヨーク	-9.02523
感じ	-9.02609
ければ	-9.02751
勉強する	-9.02769
上の	-9.02783
原	-9.02876
を受けた	-9.02897
なくてはならない	-9.02911
弟	-9.03084
してくれ	-9.03138
重要な	-9.03304
▁大	-9.03407
地球	-9.03417
間違い	-9.03433
無駄	-9.03447
室	-9.03475
目的	-9.03493
急いで	-9.03507
成功した	-9.0354
つけ	-9.03561
を持って	-9.03601
いくら	-9.03738
▁これが	-9.03945
追	-9.03972
興味	-9.04026
聞いて	-9.04068
いますか	-9.04094
部屋を	-9.04146
られ	-9.0418
きます	-9.04247
▁ちょっと	-9.04264
ろうと	-9.04313
戸	-9.04654
座	-9.04661
結果	-9.0467
害	-9.04676
病院	-9.04694
どこか	-9.04813
眠	-9.04907
決め	-9.04912
ものだった	-9.04975
聞き	-9.05052
学者	-9.0518
仕事は	-9.05301
どちら	-9.05458
じゃない	-9.05527
上手に	-9.05543
ときは	-9.05564
まれ	-9.05575
老人	-9.0563
家は	-9.05763
どうしても	-9.05814
できません	-9.05828
るべきだ	-9.05838
習	-9.05856
ではなく	-9.05878
勢	-9.05899
嫌	-9.0594
われ	-9.05983
を受け	-9.06059
がなかった	-9.06161
入って	-9.0618
ことができる	-9.06401
父親	-9.06461
カー	-9.06498
出た	-9.06553
修理	-9.06618
読み	-9.06629
成功する	-9.06786
若者	-9.06794
ことです	-9.06818
合う	-9.06852
薬	-9.07028
次の	-9.07046
は全く	-9.07065
法律	-9.07138
生まれた	-9.07143
ものを	-9.07229
と言う	-9.07249
パーティーに	-9.07254
火事	-9.07329
だけで	-9.07422
万	-9.07488
するために	-9.07492
姉	-9.07499
出て	-9.07503
をして	-9.07519
あれ	-9.07544
ジョン	-9.07553
わない	-9.07585
コーヒー	-9.07627
宿題を	-9.07647
調	-9.07651
判	-9.07729
暇	-9.07745
働く	-9.07761
ここ	-9.0786
電	-9.07886
▁誰も	-9.0792
会議	-9.07956
なる	-9.07997
深い	-9.08016
付け	-9.0807
のおかげで	-9.08149
あげ	-9.08188
負	-9.08247
星	-9.08377
右	-9.08382
感謝	-9.08391
あなたが	-9.08483
不足	-9.0867
似	-9.08874
田	-9.08977
来て	-9.08979
偉大な	-9.09011
分からない	-9.09017
教師	-9.09018
なぜ	-9.09116
聞いた	-9.09132
▁誰が	-9.09138
置	-9.09143
落	-9.09312
▁なぜ	-9.09339
持っている	-9.0942
腹	-9.09569
ピアノ	-9.0959
収	-9.09606
わけではない	-9.09638
▁新しい	-9.09651
するように	-9.10055
押し	-9.10175
滞在	-9.10202
のことを	-9.10219
なければならなかった	-9.10253
ところで	-9.10257
太	-9.1028
大いに	-9.10325
決	-9.10395
▁今日	-9.1042
連	-9.10487
わたし	-9.10498
背	-9.10578
くなる	-9.10617
傷	-9.10657
を聞いて	-9.10672
てはいけない	-9.10845
規則	-9.10904
治	-9.10916
階	-9.10919
倍	-9.10922
図書館	-9.10922
歴史	-9.10923
ボール	-9.10931
▁警察は	-9.10942
写真	-9.11043
好き	-9.11211
は大	-9.11242
ロー	-9.11337
べき	-9.11401
▁私に	-9.11418
言っている	-9.11436
太陽	-9.11448
れていた	-9.11502
和	-9.11552
曲	-9.11567
次第	-9.11578
えて	-9.11589
と一緒に	-9.11605
兄	-9.11684
歩いた	-9.11735
人たち	-9.11742
▁ここで	-9.11819
いか	-9.12031
一度	-9.12043
はこの	-9.12099
私も	-9.1223
るな	-9.12432
のある	-9.1253
失敗した	-9.12546
買	-9.12557
切れ	-9.1258
ませんでした	-9.12599
台	-9.12604
赤ん坊	-9.12662
あげた	-9.12689
まった	-9.12791
念	-9.1284
務	-9.12862
やっと	-9.13033
▁どうして	-9.13043
になります	-9.13345
従	-9.13348
髪	-9.1335
もらい	-9.13372
ならない	-9.13408
を見つけた	-9.13529
困難	-9.1357
▁それ	-9.13582
言えば	-9.13588
の上に	-9.13592
をしていた	-9.13623
首	-9.13637
いつでも	-9.13661
にあった	-9.13711
政治	-9.13743
起き	-9.13767
顔を	-9.13804
酒	-9.13821
自分が	-9.1389
イギリス	-9.1389
るよ	-9.13921
解決	-9.14178
ラジオ	-9.1419
を買った	-9.1421
▁一	-9.14233
彼女と	-9.14522
ものは	-9.14685
いう	-9.14724
能力	-9.14727
込んだ	-9.14728
モ	-9.14757
痛	-9.14868
打ち	-9.14887
ではありません	-9.14938
一日	-9.14976
寒い	-9.14986
らず	-9.15164
科学	-9.15196
部屋に	-9.15239
行って	-9.15292
にいる	-9.15364
血	-9.15528
態度	-9.15541
ようとした	-9.15558
人々は	-9.15576
終わり	-9.15577
スキー	-9.1565
▁日本は	-9.15659
相	-9.15728
になっている	-9.15791
信じ	-9.15888
ってきた	-9.16005
起こった	-9.16026
コンサート	-9.16204
ヨーロッパ	-9.16204
地震	-9.16208
ついて	-9.16279
分け	-9.16429
すぎて	-9.16516
んだよ	-9.16563
待ち	-9.16574
殺	-9.16704
点で	-9.16875
同意	-9.16909
みたい	-9.16912
できますか	-9.16931
ことで	-9.17135
けた	-9.17138
遠	-9.17393
るでしょう	-9.17411
欲	-9.17529
フランス	-9.1753
招待	-9.17571
と同じ	-9.17575
になるだろう	-9.17603
読書	-9.17616
青	-9.17736
はよく	-9.17772
事が	-9.17925
今度	-9.17931
もある	-9.17949
ところに	-9.18011
どのくらい	-9.18016
政治家	-9.18039
っても	-9.18065
政府	-9.1814
子は	-9.18154
がいる	-9.18161
校	-9.18194
演	-9.18204
欠	-9.18206
国の	-9.1824
知識	-9.18271
▁あなたに	-9.18388
ここで	-9.18476
に会った	-9.18505
税	-9.18569
が必要だ	-9.18605
抱	-9.18662
その問題を	-9.18718
くらい	-9.18729
入り	-9.1876
すぎ	-9.18774
信	-9.18839
ことがありますか	-9.18875
を知っている	-9.18889
全然	-9.1896
なくなった	-9.19009
不注意	-9.19012
早	-9.19081
してしまった	-9.19431
一杯	-9.19444
切	-9.19565
▁私たちが	-9.1957
による	-9.19583
かしら	-9.19704
▁日本	-9.19728
と思いますか	-9.19843
なんだ	-9.19941
昼食	-9.19987
と私は	-9.2003
読	-9.20095
俺	-9.20122
車が	-9.20246
買い物	-9.20259
▁ここ	-9.20259
車で	-9.20263
▁自分の	-9.20294
やら	-9.20295
温	-9.20296
例	-9.20351
見て	-9.20355
街	-9.20357
朝食	-9.20402
変	-9.20435
辞書	-9.20469
それが	-9.20499
物を	-9.20526
なければなりません	-9.20557
犯	-9.20604
我々は	-9.20718
私達は	-9.20917
ることは	-9.20927
上手	-9.2094
流れ	-9.20985
絶	-9.21032
耳	-9.21047
細	-9.21066
2、3	-9.21089
ベル	-9.2112
機会	-9.212
自由	-9.21207
遅れた	-9.2126
パーティー	-9.2131
親切	-9.21348
に行って	-9.21427
レー	-9.21508
見え	-9.2153
僕	-9.21591
片	-9.21604
遠く	-9.21632
▁我々の	-9.21633
思う	-9.21637
観	-9.2175
冗談	-9.2178
なんと	-9.21841
時間が	-9.21887
▁彼女は私に	-9.2197
きて	-9.22129
に着いた	-9.22144
等	-9.22185
親切に	-9.22193
だと思う	-9.22246
上げた	-9.22264
後で	-9.22303
▁彼を	-9.22361
日本の	-9.22547
満	-9.22557
ことはない	-9.22559
割	-9.22566
方がいい	-9.22569
能	-9.2263
間に	-9.22749
まもなく	-9.22965
自由に	-9.23049
しますか	-9.23066
▁それを	-9.23089
アメリカ人	-9.23131
姿	-9.23148
件	-9.23153
において	-9.23181
状態	-9.23226
大きい	-9.2323
の方	-9.23234
読んだ	-9.23251
彼らに	-9.23261
と思っている	-9.23375
多く	-9.2339
男性	-9.23455
は今	-9.23483
路	-9.23487
▁彼女は自分の	-9.23495
引	-9.23548
喜んで	-9.23586
車の	-9.236
活	-9.23603
晴れ	-9.23678
続けた	-9.23728
費	-9.23732
全て	-9.23751
器	-9.23952
留守	-9.23957
才能	-9.2396
考える	-9.23975
収入	-9.23978
事業	-9.24027
建物	-9.24199
であろう	-9.24253
▁その少年は	-9.24275
人です	-9.24439
ますます	-9.2449
の結果	-9.24582
前の	-9.24614
予	-9.24621
▁どんな	-9.24622
がその	-9.2467
平和	-9.24673
かなかった	-9.24678
マイル	-9.2469
ぐらい	-9.24692
言語	-9.24791
きれい	-9.24807
行為	-9.24812
犬を	-9.24874
元	-9.24875
価値	-9.25171
配	-9.25271
急に	-9.25301
増	-9.25373
ヒ	-9.2543
左	-9.2543
決定	-9.25461
付	-9.25471
を買う	-9.25507
だけの	-9.25517
がいい	-9.25531
負け	-9.25591
▁どうぞ	-9.25642
ニュース	-9.25747
伝	-9.258
なくて	-9.25839
演説	-9.26172
喫煙	-9.26177
かり	-9.26182
▁2	-9.26214
日曜日に	-9.26299
でない	-9.26319
病	-9.26604
権	-9.26669
計	-9.26699
ずに	-9.26747
詩人	-9.26759
春	-9.26771
最近	-9.2678
のこと	-9.26936
長い間	-9.26999
休暇	-9.27025
▁彼女に	-9.27081
詩	-9.27097
ないで	-9.27108
泣き	-9.27137
しばしば	-9.27173
末	-9.27317
つもり	-9.27347
自動車	-9.27411
空気	-9.27444
られなかった	-9.27462
かく	-9.27508
額	-9.27686
レストラン	-9.27686
田舎	-9.27688
飲	-9.27692
回復	-9.27709
の一	-9.27758
有名	-9.2779
国民	-9.27939
黒	-9.28138
バー	-9.28152
僕は	-9.28198
有名な	-9.28229
日曜日	-9.28257
計画を	-9.28264
白い	-9.28264
ついに	-9.28323
迎え	-9.28375
位	-9.28402
恋	-9.28449
虫	-9.28449
北	-9.2845
泥棒	-9.2845
泳ぎ	-9.28456
セ	-9.28478
支	-9.28479
個	-9.28523
さない	-9.28548
どこに	-9.28791
気分	-9.28805
まい	-9.28854
をつけ	-9.28861
作家	-9.28875
といった	-9.28883
することは	-9.28936
類	-9.29071
を見る	-9.2908
養	-9.2921
調査	-9.29221
骨	-9.2942
歩	-9.2944
思	-9.29546
ころ	-9.29694
どうして	-9.29741
だね	-9.29764
▁次の	-9.2985
島	-9.2991
英語で	-9.29964
赤ちゃん	-9.29972
参	-9.29987
▁昨夜	-9.29994
ゲーム	-9.29996
工場	-9.30017
良く	-9.30052
速	-9.30147
▁彼女には	-9.30167
が悪い	-9.30168
抜け	-9.30206
力を	-9.3025
隠	-9.30255
ライ	-9.30274
万円	-9.30479
日本人	-9.3054
はっきり	-9.30586
私達	-9.30634
あと	-9.30678
のだろう	-9.30682
腕	-9.30694
てくれませんか	-9.30761
給	-9.30766
善	-9.3077
草	-9.3077
を守	-9.30774
勤勉	-9.30775
二度と	-9.30776
以外	-9.30781
来週	-9.30794
うれしい	-9.30858
▁日本の	-9.30908
▁私の父は	-9.30927
足を	-9.30933
我々の	-9.3104
古	-9.31142
弱	-9.31194
つもりだ	-9.31242
だったので	-9.31317
▁多くの	-9.31336
嫌い	-9.3136
働き	-9.31365
味	-9.31415
かかる	-9.31437
しばらく	-9.31547
軍	-9.31557
喜び	-9.31569
結局	-9.31584
するのに	-9.31598
そして	-9.31661
教会	-9.31692
離	-9.31879
になり	-9.31927
任	-9.31938
られて	-9.31955
特	-9.31999
落ちた	-9.32014
▁トム	-9.32036
育	-9.32101
実際	-9.3224
シャツ	-9.32356
雲	-9.32356
給料	-9.32364
ところだ	-9.32484
となった	-9.32529
レン	-9.32533
森	-9.32571
速く	-9.32625
ものである	-9.32646
少しも	-9.32691
持ってい	-9.32718
何と	-9.32736
ディ	-9.32911
める	-9.32943
がよい	-9.3302
長く	-9.3307
アン	-9.33114
立て	-9.33119
土	-9.3312
余	-9.33155
裏	-9.33155
四	-9.33156
小さい	-9.33157
に関する	-9.33177
汚	-9.33177
患者	-9.33185
ところです	-9.33202
時計を	-9.33278
どこで	-9.33297
気に入	-9.33311
面白い	-9.33336
▁たとえ	-9.33358
要求	-9.33424
こそ	-9.33447
なっている	-9.33494
現在	-9.33691
してはいけない	-9.33739
抜	-9.33742
気をつけ	-9.33776
かけ	-9.33843
はい	-9.33864
覚え	-9.3393
頭が	-9.33972
に向かって	-9.33976
の間に	-9.33979
釣り	-9.33992
走り	-9.34105
駅まで	-9.34114
必要な	-9.34157
着いた	-9.34208
他人の	-9.34212
言え	-9.34212
というのは	-9.34243
振り	-9.34333
コーヒーを	-9.34534
どれ	-9.34637
想	-9.34728
そうと	-9.3473
机	-9.34751
男の子	-9.34759
突	-9.34768
脱	-9.34775
弁護士	-9.34776
ほんの	-9.34779
だけでなく	-9.34813
理論	-9.34814
別の	-9.34815
コート	-9.34831
を見ると	-9.34848
本は	-9.34998
たいてい	-9.35012
怒り	-9.35029
りました	-9.35098
予約	-9.3516
調べ	-9.35242
▁もっと	-9.35246
▁その男は	-9.35289
にした	-9.35296
悲	-9.35354
その事故	-9.35359
店で	-9.35403
退	-9.35561
保	-9.35577
散	-9.35586
タバコ	-9.35595
自然	-9.35646
間違っている	-9.3566
歩く	-9.35776
介	-9.35786
聞こえ	-9.35835
歌手	-9.35912
終え	-9.35966
楽しみ	-9.36048
電話を	-9.36054
海外	-9.36159
売り	-9.36237
はありません	-9.36281
大統領	-9.36285
再	-9.36382
装	-9.36399
混	-9.36409
怒	-9.36413
実験	-9.36422
子ども	-9.36423
どれくらい	-9.36432
子供が	-9.36501
ゆっくり	-9.36537
つもりです	-9.36546
出かける	-9.36556
日本語	-9.36558
昔	-9.36576
つけた	-9.36651
出発した	-9.36777
▁彼女はいつも	-9.36945
かわ	-9.36971
行か	-9.36987
いていた	-9.36992
切り	-9.37016
富	-9.3702
▁君に	-9.37026
日の	-9.37109
結	-9.3718
遅	-9.37197
されて	-9.37242
魔	-9.37255
秋	-9.37255
返事を	-9.37355
手伝って	-9.37498
▁わたしは	-9.37525
▁ここに	-9.37637
っていない	-9.37669
▁すぐに	-9.37728
会合	-9.3781
犬は	-9.37924
ポ	-9.37927
子供の	-9.37963
計画は	-9.38075
叔父	-9.3809
胸	-9.38095
呼び	-9.38126
間違いを	-9.38166
止め	-9.38233
欲しい	-9.38264
お願い	-9.38268
げた	-9.38283
しまった	-9.38306
見る	-9.38312
▁雨	-9.3836
に入れ	-9.38426
が彼の	-9.38668
どうやって	-9.38685
当然	-9.38826
枚	-9.38836
もう一度	-9.38942
雑誌	-9.38943
毎朝	-9.38961
土地	-9.38981
ール	-9.39011
者の	-9.39035
▁われわれは	-9.39075
呼	-9.3908
で一番	-9.39081
ぼく	-9.39172
知って	-9.39182
横	-9.39314
その本を	-9.39352
好きだ	-9.39362
できるだけ	-9.39381
かって	-9.39389
を使って	-9.39452
守	-9.39582
警官	-9.39627
完全に	-9.39649
何の	-9.39665
示	-9.39676
適	-9.39693
行かない	-9.39715
接	-9.39766
ホ	-9.39783
千	-9.39785
門	-9.39793
嘘	-9.39797
角	-9.39797
▁彼らはその	-9.40049
のは難しい	-9.40246
氏	-9.40279
笑い	-9.40291
方を	-9.40292
を止め	-9.40345
きみ	-9.40359
学校の	-9.40387
洗	-9.40422
使	-9.40449
東	-9.40472
住	-9.40499
ことができない	-9.40519
かし	-9.40538
会社の	-9.40578
ソ	-9.40595
型	-9.40598
つい	-9.40645
快	-9.40651
匹	-9.4066
興奮	-9.4066
となる	-9.40669
テスト	-9.40692
信用	-9.40703
さらに	-9.40705
一日中	-9.40819
壊	-9.40858
知り	-9.40897
▁彼はとても	-9.40928
生きている	-9.4094
ないだろう	-9.40993
せた	-9.41018
便り	-9.41031
々と	-9.41134
秘密	-9.41186
値段	-9.41197
連れて	-9.41208
タクシー	-9.41224
ないと	-9.4124
ぜ	-9.41405
米	-9.41438
見える	-9.41459
劇	-9.41493
除	-9.41522
に行きます	-9.41527
希望	-9.4153
なかなか	-9.41535
商売	-9.4154
やってみ	-9.41566
話せる	-9.41599
口を	-9.41794
ート	-9.41807
時は	-9.4183
高く	-9.4187
ちゃ	-9.41954
くなって	-9.4198
情報	-9.42
るのを	-9.4207
待って	-9.42103
処	-9.42168
かせ	-9.42314
中国	-9.42338
容	-9.42377
葉	-9.4238
根	-9.42392
サッカー	-9.42406
ワイン	-9.4242
製品	-9.42422
はずがない	-9.42459
わからなかった	-9.42525
ベ	-9.42544
まる	-9.42562
痛み	-9.42578
いま	-9.42589
静かに	-9.42602
大きく	-9.4261
やってきた	-9.42613
どちらか	-9.4268
▁どの	-9.42783
伝え	-9.42858
いたします	-9.42978
クラスの	-9.43059
かね	-9.43064
折	-9.43099
▁アメリカ	-9.43209
ヤ	-9.43287
天候	-9.43293
責任	-9.4331
してきた	-9.43342
先生に	-9.43352
誰にも	-9.43425
去年	-9.43442
▁ジムは	-9.43456
ことになる	-9.43477
事に	-9.43556
最初の	-9.43613
ばか	-9.43688
聞	-9.43749
過ごした	-9.43751
去	-9.43781
料	-9.43862
そこへ	-9.43919
父の	-9.43928
込	-9.44039
絵を	-9.44098
▁医者は	-9.44109
読む	-9.44121
の中には	-9.44147
よろしい	-9.4416
氷	-9.44184
池	-9.44184
塩	-9.44184
忠告	-9.44194
事態	-9.44213
▁彼女は私の	-9.44229
二人	-9.44267
調子	-9.44281
試験に	-9.4433
全体	-9.44378
▁ジェーンは	-9.44448
聞く	-9.44451
が好き	-9.44539
ップ	-9.44585
掛け	-9.44601
受	-9.44619
ことがない	-9.44628
来年	-9.44732
はず	-9.44849
英	-9.44879
列車は	-9.44914
ノ	-9.45007
亡	-9.4502
多い	-9.45042
事務所	-9.45085
状況	-9.45086
るの	-9.45097
持	-9.45147
▁東京	-9.45155
英国	-9.45252
向け	-9.45312
12	-9.45327
帰	-9.4533
日間	-9.45426
その計画	-9.45455
が起こった	-9.45459
学校で	-9.45477
は何ですか	-9.45521
を見つけ	-9.45554
▁彼らが	-9.45576
息	-9.45606
今まで	-9.45614
いくつか	-9.45659
何時に	-9.45758
の方が	-9.45789
応	-9.45946
ゴ	-9.45961
工	-9.45967
文化	-9.4603
なし	-9.46081
ほうがよい	-9.46087
のうち	-9.46125
価値がある	-9.46127
が一番	-9.46224
疑	-9.4635
女の子は	-9.46371
ほう	-9.46405
起きた	-9.46417
初	-9.46577
軽	-9.46591
赤い	-9.46609
▁その子は	-9.4664
組	-9.46676
盗	-9.46711
が欲しい	-9.46775
思わ	-9.46775
どうぞ	-9.46777
優	-9.46781
▁人は	-9.4682
訳	-9.46889
異	-9.46891
の中	-9.46902
到着した	-9.46912
背が高い	-9.46912
練習	-9.46916
にもかかわらず	-9.46918
よかった	-9.46919
人々が	-9.46927
変化	-9.46932
恐	-9.46949
社長	-9.46988
無理	-9.47011
と思っていた	-9.47038
僕に	-9.47122
予定です	-9.47198
ケーキ	-9.47266
入った	-9.47284
映画を見	-9.47327
してくれる	-9.47375
座って	-9.47478
外国人	-9.47483
年前に	-9.47484
でき	-9.47524
持って	-9.47585
▁今日の	-9.47609
を取って	-9.47717
ペ	-9.47756
ことになっている	-9.47774
簡	-9.47838
やさしい	-9.47838
上司	-9.47861
くれませんか	-9.47867
書類	-9.4787
一致	-9.47874
両親は	-9.47909
深	-9.47933
できた	-9.48067
今日は	-9.48136
ならば	-9.4823
警察	-9.48303
が私の	-9.48316
を変え	-9.4841
づけ	-9.4856
クラブ	-9.48615
暴	-9.48647
ひと	-9.48658
強く	-9.48669
仕事が	-9.48673
造	-9.48763
)	-9.48772
貧乏	-9.48772
しっかり	-9.48772
非難	-9.48787
を得た	-9.48796
40	-9.48797
面倒	-9.488
まさに	-9.48807
めったに	-9.48813
成長	-9.48906
を与えた	-9.4896
開け	-9.49012
もいい	-9.49018
我々	-9.49064
000	-9.49089
一週間	-9.49116
機械	-9.49141
▁空	-9.49176
かん	-9.49203
と言って	-9.49283
だろうか	-9.49335
のが好きだ	-9.49379
きなさい	-9.49395
どうも	-9.49429
ジェーン	-9.4944
閉	-9.49557
出発する	-9.49601
非	-9.49601
働いた	-9.49703
浮	-9.49706
(	-9.49716
年前	-9.49728
をとった	-9.49735
はいつ	-9.49763
そうです	-9.49837
るか	-9.49883
させて	-9.49889
暑い	-9.49931
ものと	-9.50084
はどこ	-9.50084
人と	-9.50144
勝つ	-9.50302
▁彼は彼女の	-9.50331
んでいた	-9.50346
駅で	-9.50408
打	-9.50485
は非常に	-9.50496
男は	-9.50557
彼ら	-9.50558
際	-9.50582
▁僕の	-9.50613
率	-9.5064
防	-9.50665
e	-9.50667
とは限らない	-9.50668
噂	-9.50668
整	-9.50668
存在	-9.50672
義務	-9.50676
を使う	-9.50755
れなかった	-9.50761
おもしろい	-9.50834
はどこですか	-9.50834
かれた	-9.50894
すでに	-9.50941
お互いに	-9.50943
▁テレビ	-9.51015
老	-9.51047
を忘れ	-9.51094
いただけますか	-9.51155
しまって	-9.51167
▁彼女は彼の	-9.51208
若	-9.51227
思った	-9.51239
帰り	-9.51265
あら	-9.51267
に入	-9.51273
ラー	-9.51473
交通	-9.51494
報	-9.51539
字	-9.51548
分の	-9.51564
になると	-9.51608
波	-9.51629
かつて	-9.51641
権利	-9.51646
はまったく	-9.51696
学生は	-9.51739
悪く	-9.51823
思い出	-9.51861
隣	-9.51918
?」「	-9.51974
少ない	-9.51979
勇気	-9.51981
▁ビルは	-9.52031
そうに	-9.5204
我	-9.52047
▁子供は	-9.52055
昼	-9.52081
コー	-9.52223
まして	-9.52238
住所	-9.52249
時までに	-9.52259
始	-9.52419
冊	-9.52425
いつか	-9.52491
ード	-9.52506
らなければならない	-9.52508
事件	-9.52512
説	-9.52526
▁私は昨日	-9.52546
怠	-9.52589
環境	-9.52598
逆	-9.526
南	-9.526
教授	-9.52602
判断	-9.5263
がたくさん	-9.52673
お茶	-9.52691
用意	-9.52705
中です	-9.52709
思って	-9.52811
飛	-9.52813
は決して	-9.52857
途中で	-9.53021
助言	-9.53077
説得	-9.53103
会社に	-9.53111
提出	-9.53145
先週	-9.53227
数学	-9.53307
言葉を	-9.53345
▁みんな	-9.53357
二人の	-9.53476
合った	-9.53483
騒音	-9.53532
経	-9.53544
犬が	-9.53551
時には	-9.53562
▁水	-9.53572
弾	-9.53577
A	-9.53581
鼻	-9.53581
安全	-9.53616
部屋に入	-9.53668
その問題	-9.53673
知っています	-9.53733
その事件	-9.53745
私は彼	-9.538
▁バス	-9.53851
申し出	-9.53923
実行	-9.5414
歩き	-9.54207
予定	-9.54338
の上	-9.54397
届	-9.54398
▁私は彼を	-9.54469
行こう	-9.54488
てる	-9.54491
貧しい	-9.54506
未	-9.54544
が見えた	-9.54588
えない	-9.54691
雨が降る	-9.54711
影響	-9.54762
しないで	-9.54793
方がよい	-9.54809
上がった	-9.54845
使え	-9.54863
はすべて	-9.54884
わなかった	-9.54895
バスで	-9.55022
声を	-9.55035
第	-9.55141
を見せ	-9.55161
▁すべての	-9.55208
ようになった	-9.55212
お金が	-9.55365
ピ	-9.55488
遊び	-9.55537
包	-9.55544
丘	-9.55559
西	-9.55566
何度も	-9.55573
全員	-9.55578
選挙	-9.55578
植物	-9.55599
を着	-9.55745
わなければならない	-9.55775
マン	-9.55876
ありがとう	-9.55924
を作る	-9.55975
子供を	-9.56046
問題を	-9.56177
電話をかけ	-9.56184
当て	-9.56228
私達の	-9.56244
を教え	-9.56273
もらった	-9.56338
買い	-9.56389
我々に	-9.564
移	-9.56549
ほしい	-9.5658
もちろん	-9.56581
以来	-9.56586
感情	-9.56594
活動	-9.56616
駅に	-9.5662
働いている	-9.56627
死ぬ	-9.56637
国際	-9.56645
誰か	-9.56793
けて	-9.56806
といって	-9.5689
助	-9.56897
辺	-9.57005
のない	-9.57084
息子に	-9.57086
この部屋	-9.57156
人気	-9.57207
かけた	-9.57291
人形	-9.57295
差し	-9.57326
流行	-9.57361
終	-9.57385
いれば	-9.57429
切符	-9.57431
お願いします	-9.57436
さま	-9.57443
近い	-9.57448
だれも	-9.57451
ことはできない	-9.57451
園	-9.57568
陰	-9.57574
雇	-9.57577
テニスをし	-9.57578
立った	-9.5759
跡	-9.57601
カナダ	-9.57601
肩	-9.57601
酔	-9.57601
穴	-9.57601
ページ	-9.57601
党	-9.57602
想像	-9.57607
ベッド	-9.57608
性格	-9.57618
案内	-9.57636
壁	-9.5764
を思い出す	-9.57649
実に	-9.57652
の世話をし	-9.57667
たくない	-9.57692
他人	-9.57731
台風	-9.57854
にあ	-9.58034
吹き	-9.58062
になっていた	-9.58095
科学者	-9.58149
は多くの	-9.58282
それに	-9.58291
したいのですが	-9.58438
短	-9.58488
を買って	-9.58522
泳ぐ	-9.58525
代わりに	-9.58605
雑	-9.58623
趣味	-9.58631
少なくとも	-9.58632
鉛筆	-9.58632
技術	-9.58633
競争	-9.58634
必ずしも	-9.58635
▁彼と	-9.58638
ようです	-9.58706
願	-9.58717
になりたい	-9.58831
スター	-9.58883
▁人々は	-9.58888
立っている	-9.58904
加	-9.58945
がなければ	-9.59005
があれば	-9.59007
はあまり	-9.59101
テレビを見	-9.59148
ってください	-9.59221
ませ	-9.59238
ときには	-9.59269
作り	-9.59275
いくつかの	-9.593
者が	-9.59331
もう少し	-9.59509
日本に	-9.59536
しゃ	-9.59578
おじ	-9.59581
順	-9.59665
丸	-9.59674
推	-9.59674
ピクニック	-9.59674
の誕生日	-9.59674
圧	-9.59674
りんご	-9.59677
始まる	-9.59711
年の	-9.59731
かわいい	-9.59775
兄弟	-9.59776
出来ない	-9.5981
待つ	-9.59853
先月	-9.59858
英語を話す	-9.59888
11	-9.59905
することを	-9.59972
捕	-9.59973
けれども	-9.60005
家庭	-9.60134
振	-9.60217
がとても	-9.60284
ひとりで	-9.60402
手が	-9.60402
十分な	-9.60513
涙	-9.60515
続け	-9.60566
みた	-9.60589
言わない	-9.60625
雨が降って	-9.6064
訪	-9.60645
段	-9.60651
私たちが	-9.60703
クリスマス	-9.60726
土曜日	-9.60727
容易	-9.60731
誰が	-9.60767
立場	-9.6082
立っていた	-9.60863
を引き	-9.60863
中で	-9.61083
困	-9.61096
てくれる	-9.6112
沈	-9.61194
私より	-9.61249
本を読む	-9.61267
▁人間は	-9.61288
全ての	-9.61313
君を	-9.61392
いけない	-9.6142
人も	-9.61474
をし	-9.61477
パーティーで	-9.61638
は自分の	-9.61693
誤り	-9.61746
招	-9.61784
牛	-9.61787
にちがいない	-9.61791
これ以上	-9.61792
利益	-9.61797
都合	-9.61797
ナイフ	-9.618
犯罪	-9.61808
乗客	-9.61814
地位	-9.6184
卵	-9.61845
出会った	-9.61939
なくても	-9.61959
チーム	-9.62007
床	-9.62063
走って	-9.62088
冷	-9.62092
言ったこと	-9.62247
書いて	-9.62254
学校を	-9.62257
食事を	-9.624
民	-9.62455
会い	-9.62491
女性は	-9.62551
あれば	-9.62632
関	-9.62696
上が	-9.62728
怖	-9.62739
共	-9.62791
を探し	-9.62809
物価	-9.62826
評	-9.62849
ギ	-9.6285
ケン	-9.62852
精	-9.62852
塗	-9.62865
紳士	-9.62866
わかる	-9.62879
過去	-9.62881
もらえますか	-9.62891
作文	-9.62949
通りに	-9.62977
▁うちの	-9.63009
については	-9.63123
いろいろな	-9.63166
なかったので	-9.63171
子供達	-9.63205
の生活	-9.6326
しみ	-9.63283
こんな	-9.63297
そうな	-9.63343
時まで	-9.63385
安い	-9.63626
なん	-9.63733
結婚した	-9.63748
知る	-9.63748
ぶり	-9.63753
その本	-9.6376
尋ねた	-9.6377
の意味	-9.63812
マー	-9.63866
人で	-9.63905
滅	-9.63942
及	-9.63952
狂	-9.63952
含	-9.63953
ション	-9.63953
砂糖	-9.63953
兵士	-9.63954
精神	-9.63966
楽しかった	-9.63988
毎年	-9.63988
きのう	-9.64033
を得	-9.64048
くない	-9.64054
これまで	-9.64061
いき	-9.6414
知っていた	-9.6414
尊敬	-9.64159
生活を	-9.64178
発見	-9.64206
物語	-9.64303
倒	-9.6431
ワ	-9.64319
つかない	-9.64347
▁そう	-9.64418
逃げ	-9.64452
ひとり	-9.64539
常に	-9.64651
あって	-9.64762
込んで	-9.6479
えている	-9.64791
服を着	-9.648
気分が	-9.6494
あなたと	-9.64945
値	-9.65011
信頼	-9.65013
商	-9.65013
をやめた	-9.65041
ぽ	-9.65051
城	-9.65051
照	-9.65051
宇宙	-9.65051
役に立つ	-9.65052
楽しんだ	-9.65052
表現	-9.65067
地図	-9.65077
と同じくらい	-9.6508
再び	-9.65104
必要はない	-9.65187
学ぶ	-9.6519
男が	-9.65194
申し	-9.6532
こうと	-9.65328
特に	-9.65397
人もいる	-9.65424
ましょうか	-9.65457
もらう	-9.65507
▁少年は	-9.65547
るのが	-9.65557
待た	-9.65588
しましたか	-9.65689
の後	-9.65806
けれど	-9.65812
低	-9.65841
▁昔	-9.65853
財産	-9.65877
がありません	-9.659
▁健康	-9.65996
てはいけません	-9.66002
出来る	-9.66003
▁彼は彼女に	-9.66006
なくなる	-9.66027
コン	-9.6607
会社は	-9.66091
着く	-9.66132
霊	-9.66162
腐	-9.66163
棚	-9.66163
▁どう	-9.66164
卒業	-9.66164
明らかに	-9.66177
会って	-9.66189
おいしい	-9.66236
がたくさんある	-9.66253
止	-9.66259
行け	-9.66264
ティ	-9.66304
バラ	-9.66325
せる	-9.66412
来月	-9.66445
差	-9.66463
アメリカの	-9.66465
りません	-9.66509
ありますか	-9.66566
どんなに	-9.66647
▁とても	-9.66665
当時	-9.66793
決心	-9.66819
画	-9.66856
とわかった	-9.66969
ができ	-9.66972
文学	-9.66981
死に	-9.67029
越	-9.67122
静	-9.67136
団	-9.67186
▁新	-9.67232
ュ	-9.67261
存	-9.67272
派	-9.67279
策	-9.67282
積	-9.67285
ゴルフ	-9.67286
あきらめ	-9.67287
ジェ	-9.67301
日は	-9.67303
進歩	-9.67305
▁少し	-9.67307
をとる	-9.67309
▁さあ	-9.67334
市場	-9.67344
百	-9.67351
自身	-9.67354
のを見た	-9.67403
ものが	-9.67406
▁僕	-9.67485
ウン	-9.675
いいですか	-9.67531
水が	-9.67546
電気	-9.67608
不幸	-9.67655
宿題	-9.67704
助けてくれ	-9.67754
風が	-9.67783
を持っています	-9.67801
知りません	-9.67877
吹	-9.67911
本を読んで	-9.6804
無い	-9.68042
おき	-9.68255
証	-9.68269
家が	-9.68316
歌を	-9.684
謝	-9.68408
延	-9.68408
なんか	-9.6842
者に	-9.6842
ネクタイ	-9.68423
腰	-9.68423
訴	-9.68423
底	-9.68423
詞	-9.68423
恐怖	-9.68431
彼から	-9.68479
手段	-9.68497
▁私達の	-9.68514
▁ケンは	-9.68581
列	-9.68595
▁ボブは	-9.68646
がっている	-9.68715
をかけ	-9.68814
を与え	-9.68826
とおり	-9.68862
激しく	-9.68974
もっとも	-9.68996
早い	-9.68999
は何も	-9.69053
んだろう	-9.69061
地域	-9.69064
らせ	-9.69079
シー	-9.69085
こちら	-9.69087
健康に	-9.6909
んですか	-9.69112
▁彼は私	-9.69182
ダー	-9.6919
と彼は	-9.69254
だって	-9.6926
込み	-9.6932
▁どうか	-9.69329
▁それが	-9.69335
おります	-9.69408
雨が	-9.6941
待	-9.69446
▁今晩	-9.6949
延期	-9.69512
飼	-9.69548
の前に	-9.69551
▁私は彼女の	-9.69569
スープ	-9.69572
簡単に	-9.69572
郵便局	-9.69572
最終	-9.69572
失礼	-9.69579
秘書	-9.69598
っぱ	-9.69602
を持つ	-9.69604
に住んでいます	-9.69619
識	-9.69629
込む	-9.69632
奥さん	-9.69649
夏休み	-9.69659
価格	-9.69664
だが	-9.69674
知った	-9.69771
飲んだ	-9.69806
者だ	-9.69808
働か	-9.69874
常	-9.69883
のお	-9.69974
勉強し	-9.7003
来ない	-9.70194
を聞いた	-9.70286
15	-9.70345
去った	-9.70434
▁突然	-9.70456
試	-9.70492
切手	-9.70526
遅刻	-9.70556
かす	-9.70601
今朝	-9.70677
構	-9.70695
舞	-9.70722
皿	-9.70731
罰	-9.70735
筋	-9.70735
とうとう	-9.70735
▁万一	-9.70742
退屈	-9.70743
石油	-9.70747
あげよう	-9.70756
は私に	-9.70762
使う	-9.70775
日が	-9.70797
天気が	-9.70829
生産	-9.70844
上がって	-9.70879
望み	-9.70924
はある	-9.70962
てはならない	-9.71077
労働者	-9.71112
いいですよ	-9.7124
果	-9.71313
いたら	-9.71328
てしまう	-9.71329
いくらか	-9.71331
そういう	-9.71343
私にとって	-9.71399
嵐	-9.71511
であり	-9.71521
これらの	-9.71552
最初に	-9.71553
上着	-9.71622
男だ	-9.71653
科	-9.71673
リン	-9.71725
情	-9.71732
貸	-9.71765
昇	-9.71813
問	-9.71844
バスは	-9.71848
極	-9.71904
.	-9.71911
疲れている	-9.71911
立派な	-9.71911
証拠	-9.71912
だんだん	-9.7192
知らなかった	-9.7193
男の子は	-9.7197
医者に	-9.72009
返事	-9.72036
町の	-9.72037
その結果	-9.7213
半分	-9.7217
大切な	-9.72209
を失った	-9.72237
何とか	-9.72346
終えた	-9.72356
せない	-9.72394
飲んで	-9.72413
私達に	-9.72476
▁また	-9.72574
投	-9.72724
頭を	-9.72737
床に	-9.72797
言われ	-9.72818
探	-9.72886
がよく	-9.72918
委員会	-9.72948
杯	-9.72983
個人	-9.72987
刻	-9.7299
飲む	-9.73011
ロン	-9.73052
損	-9.73075
師	-9.73081
すみません	-9.73084
掃除	-9.7309
発明	-9.73097
メートル	-9.73102
帯	-9.73102
牛乳	-9.73106
早起き	-9.73121
教室	-9.73128
関心	-9.73136
ことができた	-9.73139
感動	-9.73165
昔の	-9.73212
作品	-9.73235
台所	-9.73258
▁政府は	-9.73307
オー	-9.73327
できます	-9.7333
せよ	-9.73337
会は	-9.73356
おり	-9.73447
送り	-9.73498
してる	-9.73506
▁私は彼女に	-9.73549
以上の	-9.73553
先日	-9.73592
にあります	-9.73615
父が	-9.73649
逃	-9.73812
はお	-9.73817
教え	-9.73877
私たちを	-9.73914
言われた	-9.73926
はいけません	-9.73957
▁私はあなた	-9.74115
頂	-9.74156
を作って	-9.74161
▁私は自分の	-9.74199
帰って	-9.74221
んと	-9.74221
靴を	-9.74227
欠点	-9.74246
独	-9.74251
乱	-9.74298
余裕	-9.74307
たまたま	-9.74309
リンゴ	-9.74315
許可	-9.74319
手に入れた	-9.74321
合格	-9.74322
屋根	-9.74326
意識	-9.7433
当たり	-9.74341
ローマ	-9.74351
間に合	-9.74372
友	-9.74389
書く	-9.74401
うち	-9.74412
注文	-9.74426
なくした	-9.74436
ッド	-9.74448
を作った	-9.74617
準備	-9.74619
をよく	-9.74717
▁その会社は	-9.74756
ていますか	-9.74775
▁雨が	-9.74781
お待ち	-9.74815
を取る	-9.74817
この問題	-9.74825
▁ここから	-9.74825
そんなことを	-9.74889
経営	-9.74929
まっている	-9.75096
労働	-9.75132
の前で	-9.75148
帰宅した	-9.7515
愚か	-9.75165
互いに	-9.75258
その男	-9.75272
るもの	-9.75311
帰る	-9.75345
ーム	-9.75345
寄	-9.75378
▁もう少し	-9.7538
柄	-9.75385
がなかったら	-9.75391
▁私はあなたの	-9.75418
現	-9.75457
最後の	-9.75526
支持	-9.75538
▁明日は	-9.7554
トラック	-9.75541
ボート	-9.75545
ときどき	-9.75553
リア	-9.7556
楽しく	-9.75619
だけだ	-9.75711
分かる	-9.75714
目が	-9.75733
与え	-9.75959
飛行機は	-9.76005
るほど	-9.76052
ないでください	-9.76126
%	-9.76164
▁あれは	-9.76192
美人	-9.76203
苦労	-9.76222
に入る	-9.7623
息子が	-9.7635
のである	-9.76376
の原因	-9.76396
所に	-9.76422
置いて	-9.76584
年上	-9.76585
他	-9.76692
まない	-9.76745
凍	-9.76761
株	-9.76761
洗濯	-9.76761
貿易	-9.76761
遺	-9.76761
変わった	-9.76762
を訪れた	-9.76765
変更	-9.76766
悲しみ	-9.76771
どのように	-9.76827
にならない	-9.76853
仕事で	-9.76859
それとも	-9.76879
親切な	-9.7694
▁彼は今	-9.76947
遊	-9.76988
書いた	-9.77056
取れ	-9.77066
食べる	-9.77085
髪を	-9.77096
富士山	-9.77109
送って	-9.7711
▁日本では	-9.77112
上がり	-9.77128
るべき	-9.77219
留学	-9.77245
であること	-9.77303
世界中	-9.77341
いただけ	-9.7735
するのを	-9.77412
会話	-9.77607
▁夜	-9.77659
少	-9.7772
になりました	-9.77736
さなければならない	-9.77746
▁私たちはその	-9.77939
効	-9.77984
後悔	-9.77985
宿	-9.78002
毛	-9.78005
T	-9.7801
確かに	-9.78011
羽	-9.78011
種類の	-9.78011
記録	-9.78016
現代	-9.78037
くなり	-9.78098
母が	-9.78115
仲間	-9.78124
わせ	-9.78154
るよう	-9.78157
氏は	-9.7816
取って	-9.78199
いただき	-9.78294
殺人	-9.783
はどうですか	-9.78332
支払	-9.78346
は彼女の	-9.78349
われわれ	-9.78351
▁10	-9.78365
離れ	-9.78387
僕が	-9.78402
はみんな	-9.78411
りなさい	-9.78475
車に	-9.78481
読んで	-9.78572
は誰ですか	-9.7859
深く	-9.7859
激	-9.78627
努力を	-9.78673
まあ	-9.78676
行きます	-9.78734
無事	-9.78745
わかった	-9.78747
▁金	-9.78805
われる	-9.78817
のだろうか	-9.78877
トン	-9.78952
重要	-9.7908
周	-9.79087
ほかの	-9.791
英語が	-9.79104
間違って	-9.79177
結婚する	-9.79229
油	-9.79263
屈	-9.79268
勇敢	-9.79276
栄	-9.79276
銃	-9.79276
潔	-9.79276
皮	-9.79276
札	-9.79277
素晴らしい	-9.79278
何時間も	-9.79282
タイプ	-9.79288
忙しく	-9.79291
その知らせを聞いて	-9.79294
可能性	-9.79295
発表	-9.7937
たがっている	-9.79689
▁飛行機は	-9.79783
がうまい	-9.79806
なければいけない	-9.79819
覚えている	-9.79934
逃げた	-9.79962
注意して	-9.80016
広い	-9.80017
の一つ	-9.8003
ケーキを	-9.80064
はどんな	-9.80086
▁ジョン	-9.80096
▁そんなに	-9.8011
恥ずかし	-9.80126
真っ	-9.8017
世界の	-9.80248
ができる	-9.80255
ことである	-9.80366
仕事の	-9.80377
ることができる	-9.8044
それら	-9.80443
に関して	-9.80485
求め	-9.80533
話しかけ	-9.80546
布	-9.80551
課	-9.80554
六	-9.80558
熟	-9.80558
借りた	-9.80559
誰でも	-9.80593
水泳	-9.80597
食料	-9.80601
▁そこ	-9.80656
に関しては	-9.8066
実際に	-9.8078
▁ついに	-9.80837
60	-9.8084
18	-9.80877
待った	-9.80949
▁彼ら	-9.81029
されていた	-9.81151
人物	-9.81239
はいない	-9.81254
▁その問題は	-9.81313
遅れて	-9.81353
なのだ	-9.81398
うそ	-9.81432
ていました	-9.81521
▁マ	-9.81602
は私には	-9.81619
えば	-9.81639
健	-9.81644
ボブ	-9.81655
死んで	-9.81669
▁どんなに	-9.81698
あげる	-9.81716
夕	-9.81717
日本で	-9.81729
家にいた	-9.8173
見せ	-9.81754
比	-9.81836
密	-9.81854
祝	-9.81856
いわゆる	-9.81857
つつある	-9.81858
高校	-9.81868
認	-9.81875
実現	-9.81884
商品	-9.81887
触れ	-9.81905
費用	-9.8192
議長	-9.81935
それについて	-9.82001
考えて	-9.82013
心に	-9.82013
ガン	-9.82034
一生懸命勉強し	-9.82077
燃え	-9.82114
おいで	-9.82231
言葉は	-9.82304
困った	-9.82305
キー	-9.8237
秘密を	-9.82376
情報を	-9.82471
としても	-9.82544
十分に	-9.82683
助けを求め	-9.82725
恐れ	-9.8274
についての	-9.82755
ったら	-9.82787
いろいろ	-9.82806
きれいな	-9.82978
たばこ	-9.82994
んだけど	-9.8304
在	-9.83119
っくり	-9.83124
才	-9.83148
やつ	-9.83156
につれて	-9.83168
影	-9.83171
ずいぶん	-9.83173
北海道	-9.83173
それぞれ	-9.83173
明かり	-9.83219
使用	-9.83223
大丈夫	-9.83227
悲しい	-9.83229
ってくれた	-9.8326
インド	-9.83269
べきです	-9.83271
貸し	-9.83288
おしゃべり	-9.83309
よね	-9.83311
体重	-9.83333
少年は	-9.8336
だめ	-9.83373
賢い	-9.8339
▁あ	-9.83422
座っていた	-9.83422
甘い	-9.83443
だったら	-9.83472
通じ	-9.83606
▁船は	-9.83613
やり方	-9.83682
っこ	-9.83693
へ行って	-9.83803
向こう	-9.83839
いただけませんか	-9.83886
音が	-9.83905
は私が	-9.83954
信じる	-9.83978
▁3	-9.83978
病気の	-9.83986
住んでいる	-9.84089
いって	-9.84101
友達が	-9.84125
父は	-9.84188
界	-9.84219
問題に	-9.84234
人たちは	-9.84244
付き	-9.84266
▁彼女は私	-9.84273
を求めて	-9.84275
資	-9.84275
▁彼女はとても	-9.84294
ほうが	-9.84304
注	-9.84352
基	-9.84364
いいよ	-9.84368
家に帰	-9.84392
可	-9.84482
修	-9.84483
うんざり	-9.84485
各	-9.84506
いちばん	-9.84506
博物館	-9.84506
合衆国	-9.84506
庫	-9.84506
故郷	-9.84507
セーター	-9.84512
増加	-9.84519
手紙を書く	-9.84546
運命	-9.84565
ことに決めた	-9.84568
動き	-9.84591
イタリア	-9.84617
けない	-9.84626
あたり	-9.84641
ことがわかった	-9.84665
ブラ	-9.84673
▁犬は	-9.84689
使わ	-9.84716
亡くなった	-9.84741
この町	-9.84767
ニー	-9.84768
タン	-9.84772
困っている	-9.84816
使った	-9.84822
婦人	-9.84882
0	-9.85007
速い	-9.85055
でしたか	-9.85056
間違え	-9.85125
遠い	-9.85131
子供に	-9.85137
▁彼は決して	-9.85167
る前に	-9.85246
はじめて	-9.8529
本を読み	-9.85399
はいけない	-9.85423
知られている	-9.8547
支払い	-9.85497
ることができなかった	-9.85514
向き	-9.8552
心を	-9.85661
産業	-9.85664
▁彼は私を	-9.85763
楽に	-9.85789
大人	-9.8581
うわさ	-9.85842
ヘ	-9.85844
の準備	-9.85845
局	-9.85849
端	-9.85851
誘	-9.85855
毒	-9.85857
券	-9.85857
奴	-9.85857
緑	-9.85857
a	-9.85858
奇	-9.85858
オレンジ	-9.85858
我慢できない	-9.85858
おっしゃ	-9.85858
袋	-9.85858
紅茶	-9.85859
夫婦	-9.85859
禁止	-9.85862
企業	-9.85863
人前で	-9.85866
激しい	-9.85895
得意	-9.85936
をとって	-9.85961
リスト	-9.85974
出身	-9.85975
本の	-9.85978
生物	-9.85998
今年	-9.8612
人達	-9.86154
入れた	-9.86158
▁ぼくは	-9.86162
トラ	-9.86176
やっている	-9.86209
考えた	-9.86218
その少年	-9.86228
帰ってきた	-9.86253
てくる	-9.86297
へと	-9.86305
に慣れ	-9.86348
▁私は彼女が	-9.86414
眠り	-9.86425
わかって	-9.86427
レス	-9.86434
は君	-9.86495
走った	-9.86497
が無い	-9.86499
を取った	-9.86528
を書く	-9.86604
酒を	-9.86613
鍵	-9.86632
までには	-9.86658
疑い	-9.86683
戻って	-9.86874
もし	-9.86931
マイク	-9.86987
取った	-9.87018
並	-9.8703
は日本	-9.87031
ていった	-9.87057
たり	-9.87147
厳	-9.87156
中の	-9.87174
義	-9.87196
州	-9.87224
ポケット	-9.87227
恐ろしい	-9.87227
ユ	-9.87227
そろそろ	-9.87228
アパート	-9.87228
省	-9.87228
踏	-9.87228
相談	-9.87234
暖かい	-9.87245
完成	-9.8725
喜んだ	-9.87254
厳しい	-9.87263
冷たい	-9.87283
不安	-9.87325
らせた	-9.87428
パー	-9.87436
資金	-9.87451
大部分	-9.87451
子供は	-9.87465
書を	-9.875
に入った	-9.87624
合わない	-9.87653
東京に	-9.87794
現れた	-9.87813
暖	-9.87903
青い	-9.87942
ことが出来る	-9.87944
がほしい	-9.88099
▁そのような	-9.88118
止ま	-9.8827
ようにしなさい	-9.88285
とお	-9.88359
考えを	-9.88395
ジム	-9.8846
迷	-9.88559
復	-9.88574
幸運	-9.8858
隊	-9.88607
同様	-9.88613
変わり	-9.88632
番組	-9.88636
女優	-9.88644
ドイツ語	-9.88652
言ったことは	-9.88668
ぜひ	-9.88674
理解できない	-9.88728
中止	-9.88815
覚	-9.88889
かえ	-9.89038
たいのですが	-9.89067
モン	-9.89094
やす	-9.89141
終わる	-9.89186
息子を	-9.89243
しません	-9.89274
▁彼女は彼に	-9.89281
いで	-9.8954
を貸して	-9.89567
暑	-9.8959
しろ	-9.89738
頭に	-9.89774
仲	-9.8986
なのです	-9.8992
日で	-9.89986
バスに乗	-9.9001
改	-9.90013
八	-9.90025
o	-9.90025
豊	-9.90025
最善を尽く	-9.90025
祈	-9.90025
彼に会った	-9.90025
たぶん	-9.90027
交換	-9.90029
ウィ	-9.90031
意志	-9.90038
主義	-9.90043
するのが	-9.90075
論文	-9.90076
ないよ	-9.90084
こんなに	-9.90088
を読んで	-9.90094
しかない	-9.90114
雪が降	-9.90134
部分	-9.90157
人口	-9.90244
人類	-9.90246
たちが	-9.90295
引っ	-9.90298
そんなこと	-9.90333
窓を開け	-9.90358
ひとつ	-9.90367
主張した	-9.90404
歌う	-9.90425
替え	-9.90464
現れ	-9.90468
にはたくさんの	-9.90481
を信じ	-9.90526
▁海	-9.90536
仕事を終え	-9.90541
第一	-9.90571
地方	-9.90599
500	-9.90662
あまりにも	-9.9075
かけて	-9.90753
母は	-9.90757
チームは	-9.90889
は大変	-9.90947
を始めた	-9.91009
備	-9.91014
かれている	-9.91039
人間の	-9.91167
に注意	-9.91182
済	-9.91212
を感じ	-9.91247
二つの	-9.91248
さなかった	-9.91289
両親に	-9.91419
製	-9.91421
よくない	-9.91431
福	-9.91452
砂	-9.91453
滑	-9.91453
癖	-9.91453
i	-9.91454
講義	-9.91456
計算	-9.91462
▁その老人は	-9.91497
家具	-9.91508
バター	-9.91523
市長	-9.91544
見込み	-9.91549
他に	-9.91604
決めた	-9.91609
そうすれば	-9.91625
重い	-9.91641
締め	-9.91666
大変な	-9.91694
することが	-9.91782
▁あまり	-9.91794
ドアを開け	-9.91842
もうすぐ	-9.91846
先に	-9.91901
をかけて	-9.91913
教えて下さい	-9.9192
もなく	-9.91931
学生が	-9.91957
ていただけませんか	-9.9216
でいる	-9.92161
歓迎	-9.92168
任せ	-9.92204
になれ	-9.92212
洋	-9.92245
病気のため	-9.92245
飲み物	-9.92297
言いました	-9.9231
腹を立て	-9.92321
外で	-9.92323
になるでしょう	-9.92342
教えて	-9.92348
▁列車は	-9.92377
好きではない	-9.92383
サー	-9.9241
の人口は	-9.92425
をかけた	-9.92464
解け	-9.92496
途中	-9.92542
遊んで	-9.92555
からといって	-9.92602
▁その家は	-9.92652
中だ	-9.92804
ることを	-9.92832
壁に	-9.92848
球	-9.92853
荷物を	-9.92854
弁	-9.92878
のだから	-9.92898
境	-9.92902
エネルギー	-9.92903
グループ	-9.92903
霧	-9.92903
輸入	-9.92908
駐車	-9.9291
美しさ	-9.92917
都会	-9.92922
文字	-9.9293
公平	-9.92944
職業	-9.92954
我が	-9.92978
▁彼は私が	-9.92994
貯金	-9.93027
やがて	-9.93031
我々が	-9.93033
正午	-9.93051
当地	-9.93075
意見が	-9.93076
立ち寄	-9.93078
大切	-9.9317
▁春	-9.93208
組み	-9.93251
その仕事に	-9.93277
一体	-9.93352
鳥が	-9.93375
▁私はそれを	-9.934
不可能だ	-9.93429
合い	-9.93456
笑った	-9.93493
▁まもなく	-9.93521
足が	-9.93667
今では	-9.93769
体を	-9.93772
を読む	-9.93799
ものではない	-9.93829
ミス	-9.9385
訪ねて	-9.93982
犬に	-9.94051
茶	-9.94052
途	-9.94094
握	-9.94104
っちゃ	-9.9416
は無	-9.94182
しようとした	-9.94201
協	-9.94291
港	-9.94296
価	-9.94297
ザ	-9.94297
考慮	-9.943
荷	-9.94304
ェ	-9.94319
パーティーを	-9.94336
節	-9.94352
政	-9.94354
看護婦	-9.94373
仮	-9.94373
薄	-9.94373
唯一の	-9.94373
野菜	-9.94377
条件	-9.94379
政策	-9.9438
盗まれた	-9.9438
机の上に	-9.94394
危機	-9.94396
飽き	-9.9444
持っていない	-9.94457
ついている	-9.94492
かかりますか	-9.9452
▁お前	-9.94543
後ろ	-9.94568
日中	-9.94589
やってくる	-9.94589
それでも	-9.946
にくい	-9.946
週末	-9.94613
見かけ	-9.94613
料金	-9.94657
が必要です	-9.94714
財産を	-9.94757
焼け	-9.94776
原因	-9.94818
そうした	-9.9486
乗った	-9.94907
てしまいました	-9.95115
▁その犬は	-9.95121
▁コーヒー	-9.95126
教えてください	-9.95172
別れ	-9.95286
はずだ	-9.95299
▁誰かが	-9.95366
▁あんな	-9.95367
訪問	-9.95431
走る	-9.9547
テーブルの上	-9.9549
いかがですか	-9.95573
今週	-9.95577
結婚して	-9.95579
とり	-9.95588
ナー	-9.95668
と思って	-9.95669
一生	-9.95673
寝た	-9.95706
具	-9.95746
できている	-9.95774
かったので	-9.95774
院	-9.95819
象	-9.95842
べきではない	-9.95851
煙	-9.95853
像	-9.95857
貨	-9.95864
t	-9.95866
スピード	-9.95866
干	-9.95866
エンジン	-9.95866
オーストラリア	-9.95866
銭	-9.95866
咲	-9.95866
かもしれません	-9.95866
競技	-9.95867
質問に答え	-9.9587
ることはできない	-9.95871
▁私は今	-9.95874
信号	-9.95875
ホーム	-9.95876
何人か	-9.95882
爆発	-9.95884
海岸	-9.95893
劇場	-9.95912
なくてはいけない	-9.95949
上昇	-9.95974
キロ	-9.95983
かどうかは	-9.96004
を覚え	-9.96055
テン	-9.96143
お手伝い	-9.9618
参加	-9.96191
まえ	-9.96216
▁神	-9.96257
りたい	-9.96259
るような	-9.96288
▁今夜は	-9.96356
▁電話	-9.96399
▁子供たちは	-9.96414
200	-9.96496
座った	-9.96544
のと同じ	-9.96582
、「	-9.96597
自転車を	-9.96619
多くの人が	-9.96718
気候	-9.9683
光景	-9.96908
▁彼は英語	-9.96924
とか	-9.96966
ックス	-9.97034
のではないか	-9.97035
するつもりです	-9.97117
母に	-9.97144
辞め	-9.97158
先生が	-9.97173
▁これを	-9.97175
ごとに	-9.97199
名声	-9.97246
ドイツ	-9.97342
状	-9.97368
スピーチ	-9.97381
到着する	-9.97381
幼	-9.97381
総	-9.97381
羊	-9.97381
乾	-9.97381
離陸	-9.97387
煙草	-9.9739
行儀	-9.97397
天才	-9.97398
はどのくらい	-9.97399
▁そして	-9.97402
フェ	-9.9741
頭痛	-9.97417
自殺	-9.97425
ていく	-9.97431
を書いた	-9.97449
小屋	-9.9746
現実	-9.97482
▁すぐ	-9.97541
受け取った	-9.97558
彼女から	-9.97583
ハン	-9.97584
みると	-9.97599
家で	-9.97608
怒っている	-9.97612
かかってい	-9.97624
地面	-9.97633
▁警官は	-9.97684
しないだろう	-9.97727
食べた	-9.97741
帰ってくる	-9.97744
ないで下さい	-9.97746
主人	-9.97789
学校へ	-9.97827
を認め	-9.97878
ことには	-9.97994
勉強した	-9.98009
おまえ	-9.98029
わり	-9.98092
運転手	-9.98098
テニスをする	-9.98143
くれる	-9.98158
日本語を	-9.98195
を受ける	-9.98338
尋ね	-9.98345
スミスさん	-9.9837
▁事故	-9.98376
▁私は彼	-9.98387
寝る	-9.98403
に満足して	-9.98403
要求した	-9.98416
その日	-9.98438
と思っています	-9.98455
ちゃん	-9.98485
そのことを	-9.98489
初め	-9.98524
無し	-9.98625
おく	-9.9864
▁あの人	-9.98659
のでしょう	-9.98662
▁彼はよく	-9.98696
の下	-9.98703
考	-9.9872
ようだった	-9.98739
は少し	-9.98787
ランド	-9.98797
図	-9.98835
農	-9.98857
劣	-9.98897
▁いつも	-9.98899
区	-9.98916
診	-9.98917
レポート	-9.98919
編	-9.98919
きちんと	-9.9892
を払う	-9.9892
射	-9.9892
雨が降った	-9.9892
忙しかった	-9.98927
どおり	-9.98929
景色	-9.98932
予想	-9.98938
異なる	-9.98942
結論	-9.98946
注意深く	-9.98955
騒	-9.98966
わずか	-9.98973
によれば	-9.98979
年になる	-9.98979
分からなかった	-9.98981
耐え	-9.99006
若い頃	-9.99007
寒さ	-9.99025
そのことについて	-9.99049
建て	-9.99095
ことができなかった	-9.99111
誤りを	-9.99115
責め	-9.99184
おいた	-9.99222
為に	-9.99241
ここに来	-9.99244
の下に	-9.99271
事実を	-9.99326
を手伝	-9.99443
アイ	-9.99471
の責任	-9.99559
絶対に	-9.99587
辞書を	-9.99717
認め	-9.99832
▁実は	-9.99871
を入れて	-9.99903
英語を勉強し	-9.99933
良かった	-10.0011
時から	-10.0015
甘	-10.0016
格	-10.0017
芸術	-10.0018
家族は	-10.0037
はみな	-10.0037
をたくさん	-10.004
するつもりだ	-10.0041
浴	-10.0044
争	-10.0044
知り合い	-10.0047
専	-10.0047
S	-10.0048
ポンド	-10.0048
〜	-10.0048
磨	-10.0048
裂	-10.0048
ホワイト	-10.0048
迫	-10.0048
堂	-10.0048
大声で	-10.0049
つまり	-10.0049
具合	-10.005
愛情	-10.0052
っていますか	-10.0057
協力	-10.0057
会え	-10.0057
に行きたい	-10.0058
レース	-10.0064
▁今年は	-10.0067
というもの	-10.0069
好み	-10.0075
いくつ	-10.009
怒った	-10.0091
彼女に会った	-10.0101
▁嵐	-10.0102
▁世界	-10.0103
はじめた	-10.0104
▁私は彼と	-10.0105
この本を	-10.0106
しておく	-10.0108
付いて	-10.0111
飛行機で	-10.0115
仕上げ	-10.0123
試み	-10.0126
過ごし	-10.0131
から出	-10.0144
しないように	-10.015
いっそう	-10.0153
親切だ	-10.0158
ょ	-10.0159
聞こえる	-10.016
食物	-10.0166
しさ	-10.017
交通事故	-10.0171
これから	-10.0173
▁ア	-10.018
父親の	-10.0182
否定	-10.0191
と結婚した	-10.0191
暮	-10.0195
停	-10.0199
設	-10.0203
号	-10.0205
宝	-10.0206
サービス	-10.0207
妙	-10.0207
を避け	-10.0207
濃	-10.0207
アフリカ	-10.0207
季節	-10.0207
試験に合格する	-10.0207
禁煙	-10.0207
被害	-10.0207
比べ	-10.0208
コップ	-10.0212
なお	-10.0219
その問題について	-10.0224
彼の言うこと	-10.0227
▁その少女は	-10.0231
果物	-10.0233
息を	-10.0237
るのを見た	-10.0244
おじさん	-10.0248
本当だ	-10.0254
泊ま	-10.0269
言うと	-10.0272
彼女の顔	-10.0273
▁今の	-10.0274
のことで	-10.0276
鍵を	-10.0276
▁彼はこの	-10.0279
ることが	-10.0281
母の	-10.0287
切った	-10.0288
見えた	-10.0293
▁ただ	-10.0293
どちらが	-10.0298
踊	-10.03
アリ	-10.0301
まし	-10.0303
ところだった	-10.0304
わかり	-10.0305
消え	-10.0311
いなさい	-10.0311
町は	-10.0311
電話で	-10.0313
トニー	-10.0317
▁昨日は	-10.0319
といっしょに	-10.0321
じっと	-10.0321
▁それで	-10.0333
ロンドンに	-10.0337
をつけた	-10.0338
を集め	-10.0342
割り	-10.0343
報告	-10.0357
算	-10.0366
板	-10.0367
眼	-10.0368
キング	-10.0368
荒	-10.0368
奇妙な	-10.0368
バッグ	-10.0368
金曜日	-10.0368
おそらく	-10.0368
針	-10.0368
補	-10.0368
建設	-10.0368
泳いで	-10.0369
心臓	-10.0369
ソン	-10.0369
薬を	-10.0371
退職	-10.0372
処理	-10.0373
何回	-10.0374
出来事	-10.0375
ダンス	-10.0375
忘れずに	-10.0379
▁ああ	-10.0381
のせいで	-10.0382
外国語	-10.0383
発言	-10.0386
▁今朝	-10.0387
▁ジャックは	-10.0387
かばん	-10.0388
生命	-10.0388
進んだ	-10.0397
▁この本	-10.0399
の研究	-10.0404
つめ	-10.0408
見えなかった	-10.0414
不可能	-10.0418
的だ	-10.042
手紙を書いた	-10.042
と思い	-10.0424
帰った	-10.0437
だと思った	-10.0443
を食べる	-10.0445
ように言った	-10.0446
▁誰か	-10.0451
に住む	-10.0451
▁この問題は	-10.0452
鉄	-10.0457
ていただけますか	-10.0458
家にいる	-10.0458
使って	-10.0458
に乗って	-10.0463
が好きですか	-10.0468
パーティーは	-10.0471
を与える	-10.0473
▁彼はもう	-10.0474
ここへ来	-10.0482
いてください	-10.049
ごと	-10.0497
熱心に	-10.0497
写真を	-10.0503
雨が降り	-10.0505
寒	-10.0506
▁まだ	-10.0515
みなさい	-10.0516
残念	-10.0519
族	-10.0525
していますか	-10.0529
危	-10.053
今までに	-10.053
就	-10.053
▁私はいつも	-10.0531
占	-10.0532
確かめ	-10.0532
魅力的	-10.0532
億	-10.0532
翻訳	-10.0532
近づいて	-10.0533
遊ぶ	-10.0536
本当のこと	-10.0536
神経	-10.0537
叫んだ	-10.0539
神戸	-10.0542
したので	-10.0548
はじめ	-10.0548
供給	-10.0551
▁今夜	-10.0558
衣	-10.056
をお願いします	-10.057
生きて	-10.057
かのように	-10.0576
どうか	-10.0577
世間	-10.0583
事故で	-10.0584
時間は	-10.0585
関係がある	-10.0586
現在の	-10.0588
述べた	-10.0589
彼らが	-10.059
心配している	-10.0594
ことにした	-10.0597
責任がある	-10.0603
泣	-10.0615
かけている	-10.0616
名を	-10.062
ええ	-10.0625
箱を	-10.0627
テレビで	-10.0637
話し方	-10.0639
ということは	-10.0648
母親に	-10.0648
のなら	-10.0651
しなければなりません	-10.0652
今夜	-10.0653
が見える	-10.0654
危険な	-10.0655
のほうが	-10.0656
さんに	-10.0678
もいる	-10.0681
続	-10.0682
出発します	-10.0686
つける	-10.0689
支配	-10.0693
可能	-10.0694
由	-10.0695
程	-10.0695
評価	-10.0698
フットボール	-10.0699
従業員	-10.0699
添	-10.0699
俳優	-10.0699
フィ	-10.0699
保険	-10.0699
平均	-10.0699
けんか	-10.0699
損害	-10.07
始まった	-10.0701
傾向がある	-10.0705
を起こし	-10.0706
制度	-10.0711
行けば	-10.0712
待っている	-10.0713
選び	-10.0713
人気がある	-10.0717
▁先週	-10.0717
音楽家	-10.0718
あっ	-10.0724
は君の	-10.0728
ビール	-10.0731
▁これは私が	-10.0736
ある程度	-10.0736
カン	-10.0755
ちゃんと	-10.0758
ていません	-10.0762
黒い	-10.0767
お話し	-10.0768
▁こちら	-10.077
ておく	-10.0778
銀行に	-10.0778
自ら	-10.079
不満	-10.0792
▁英語は	-10.0794
この辺	-10.0797
見えない	-10.0797
明日の朝	-10.0798
絶対	-10.0799
いす	-10.0805
ワー	-10.0808
駅へ	-10.0809
ておいて	-10.0828
思っている	-10.0831
を受け入れ	-10.0837
ジャック	-10.0849
貧	-10.0864
邪	-10.0865
聴	-10.0866
▁その仕事は	-10.0866
護	-10.0867
映	-10.0868
ゲ	-10.0868
r	-10.0868
ハワイ	-10.0868
脚	-10.0868
ライオン	-10.0868
厚	-10.0868
チェック	-10.0868
始まり	-10.087
舞台	-10.087
航空	-10.087
強盗	-10.0871
▁来週	-10.0871
農場	-10.0871
独立	-10.0872
切って	-10.0878
正しく	-10.0883
カード	-10.0883
ってしまう	-10.0886
空腹	-10.0889
もはや	-10.0889
詰め	-10.0893
事だ	-10.0897
▁マイクは	-10.0898
▁あいつ	-10.09
なんでも	-10.0907
その時	-10.0921
の中を	-10.0922
を下	-10.0928
遅い	-10.0934
かさ	-10.0935
言葉に	-10.0935
置いた	-10.094
なのか	-10.0942
当てに	-10.0943
金持ちだ	-10.0944
飛んでい	-10.0955
いとこ	-10.0956
忘れた	-10.0959
泊	-10.0973
か知っていますか	-10.0979
ましい	-10.098
分かった	-10.0981
されています	-10.0981
よく知っている	-10.0983
▁もう一度	-10.0983
離れた	-10.099
ないでくれ	-10.0992
そんなことは	-10.0993
続ける	-10.1
たとえ	-10.1003
▁まず	-10.1003
回り	-10.1004
備え	-10.1007
まれた	-10.1011
言葉で	-10.1017
合っている	-10.102
それで	-10.1029
題	-10.1032
がわかる	-10.1033
恵	-10.1037
担	-10.1038
襲	-10.1039
官	-10.104
材	-10.104
鞄	-10.1041
筆	-10.1041
幾	-10.1041
超	-10.1041
岩	-10.1041
七	-10.1041
販売	-10.1041
効果	-10.1042
役立つ	-10.1042
誠実	-10.1043
横断	-10.1045
手術	-10.1045
勝利	-10.1045
目の	-10.1049
よりずっと	-10.105
と言われている	-10.1051
ロック	-10.1052
夕方	-10.1055
庭に	-10.1056
化学	-10.1059
願い	-10.1071
▁ここは	-10.1076
がありました	-10.1081
ごらん	-10.1085
外出する	-10.1094
頭の	-10.1105
うまい	-10.1109
体に	-10.1113
ホテルに	-10.1117
確信している	-10.1117
を助ける	-10.1119
は我々の	-10.1126
会議に	-10.113
どういう	-10.1137
▁ニューヨーク	-10.115
免	-10.1152
は誰も	-10.1152
週に	-10.1153
遅れる	-10.1154
▁問題は	-10.1157
一時間	-10.1159
答	-10.1162
早く起き	-10.1163
面白	-10.118
を知らない	-10.1186
味が	-10.1188
休暇を	-10.1197
ベス	-10.1199
に似ている	-10.12
タイ	-10.1202
▁どこで	-10.1202
自分を	-10.1204
属	-10.121
▁結局	-10.1212
ほかに	-10.1215
創	-10.1215
C	-10.1216
雷	-10.1216
最大の	-10.1216
巻	-10.1216
至	-10.1216
よろしく	-10.1216
繁	-10.1216
脳	-10.1216
おもちゃ	-10.1216
▁こういう	-10.1216
暗闇	-10.1217
誤解	-10.1218
この前	-10.1219
出版	-10.1219
さえすればよい	-10.1221
結婚式	-10.1222
らぬ	-10.1224
ほぼ	-10.1225
に達した	-10.1225
ピン	-10.1228
どうにか	-10.1231
景気	-10.1231
▁ある	-10.1236
▁ケイトは	-10.1237
ノート	-10.1238
様子	-10.124
毎週	-10.1246
勤め	-10.1256
するでしょう	-10.1257
傘を	-10.1261
を見せて	-10.1262
そのような	-10.1264
一度も	-10.1267
一方	-10.1267
いらっしゃい	-10.1269
が起こ	-10.127
を投げ	-10.1272
画家	-10.1281
80	-10.1283
を切り	-10.1285
されました	-10.1288
を食べた	-10.1295
説明した	-10.1307
ることができた	-10.1319
われわれの	-10.1322
いっしょに	-10.1322
お客	-10.133
方向	-10.1341
数学の	-10.1344
聴衆	-10.1346
くら	-10.1356
席を	-10.1361
考えている	-10.1363
良くな	-10.1365
衆	-10.1368
始める	-10.1371
盛	-10.1376
まって	-10.1382
子供たちに	-10.1386
入学	-10.1388
番号	-10.1391
易	-10.1394
館	-10.1395
嘆	-10.1395
どんどん	-10.1395
一般に	-10.1395
素敵な	-10.1395
ショック	-10.1395
最高の	-10.1395
清	-10.1395
スカート	-10.1395
忍耐	-10.1395
講演	-10.1396
どり	-10.1396
評判	-10.1397
怒って	-10.1397
優勝	-10.1397
スペイン語	-10.1397
自分自身	-10.1398
耳に	-10.1399
貴方	-10.14
駆け	-10.1401
眠っている	-10.1402
▁今度の	-10.1402
会社で	-10.1402
をとり	-10.1404
のを楽しみにしてい	-10.1406
ハイ	-10.1412
されます	-10.1415
しなければ	-10.1415
を知っていますか	-10.1416
つもりですか	-10.1416
閉め	-10.1417
過ぎる	-10.1422
入院	-10.1428
そこへ行く	-10.1429
たずねた	-10.1436
▁今朝は	-10.1436
すり	-10.144
ところへ	-10.1447
ミルク	-10.1448
があったら	-10.1449
▁いい	-10.1452
手で	-10.1453
隣の	-10.1464
ものはない	-10.1467
だめだ	-10.147
開いた	-10.1475
ことができます	-10.1482
るつもりです	-10.1486
寄り	-10.1486
▁何を	-10.1487
を教えてください	-10.1495
プレゼントを	-10.1503
▁その事故は	-10.1504
周り	-10.1511
はしばしば	-10.1517
士	-10.1523
もらって	-10.1526
なんです	-10.1537
英語は	-10.1543
おもしろ	-10.1545
彼はその	-10.1552
ゆっくりと	-10.1553
記事	-10.1555
祖母	-10.1558
いいのに	-10.1559
▁太陽が	-10.1561
吸	-10.1564
態	-10.1567
卵を	-10.1567
壊した	-10.1571
を感じた	-10.1573
言おうと	-10.1573
写	-10.1575
源	-10.1576
喧	-10.1577
丁	-10.1577
せいぜい	-10.1577
刈	-10.1577
拝	-10.1577
あちこち	-10.1577
検査	-10.1577
の余地	-10.1577
組織	-10.1577
命令	-10.1577
すごい	-10.1577
する事	-10.1579
メール	-10.1581
んだから	-10.1584
会いたい	-10.1584
たびに	-10.1586
すごく	-10.1589
▁私の母は	-10.1592
報告書	-10.1592
米国	-10.1596
その島	-10.1596
ダン	-10.1596
ってはいけない	-10.1604
ガス	-10.1605
は日本の	-10.161
うちで	-10.1612
無実	-10.1612
行かなければならない	-10.1614
はいかがですか	-10.1618
でもある	-10.1625
▁日本人は	-10.1627
▁少女は	-10.1628
理由を	-10.1632
残ってい	-10.1634
行きなさい	-10.1635
買う	-10.1635
をじっと見	-10.165
落とし	-10.1652
それだけ	-10.1656
国では	-10.1658
のよ	-10.1659
弱い	-10.1663
どのようにして	-10.1667
その手紙を	-10.1668
張り	-10.1669
声が	-10.1671
言う事	-10.1675
けば	-10.1676
無く	-10.168
窓から	-10.168
あっても	-10.168
努力した	-10.1683
なんとか	-10.169
犯人	-10.1691
チームの	-10.1698
▁彼は昨日	-10.171
さんが	-10.1712
開いて	-10.172
もいいですか	-10.1723
していました	-10.1725
首を	-10.1728
ビールを	-10.173
行ける	-10.1736
探し	-10.1737
心から	-10.1738
に着く	-10.1739
病気で	-10.1742
祭	-10.1743
かなりの	-10.1744
彼らを	-10.1747
文句	-10.1754
むしろ	-10.1756
否	-10.1759
統	-10.1761
恥	-10.1761
チーズ	-10.1762
ジョーンズ	-10.1762
相変わらず	-10.1762
焦	-10.1762
見知らぬ人	-10.1762
多額の	-10.1762
訓練	-10.1762
財政	-10.1762
旧友	-10.1762
といえば	-10.1762
医師	-10.1762
おかしい	-10.1763
やれ	-10.1764
同情	-10.1765
子供の頃	-10.1766
不平	-10.1766
有罪	-10.1769
全員が	-10.177
閉じ	-10.177
向かい	-10.177
んじゃない	-10.1771
手紙を書いて	-10.1773
べきだったのに	-10.1774
お知らせ	-10.1775
微笑み	-10.1775
が痛い	-10.178
道に迷った	-10.1782
責任を	-10.1788
残り	-10.1788
▁最初	-10.1794
からずっと	-10.1798
の間で	-10.18
進んで	-10.1826
生徒が	-10.1826
ドアを	-10.1827
▁兄は	-10.1837
ずつ	-10.184
に乗る	-10.1849
プロ	-10.1854
傘を持って	-10.1855
を知る	-10.1855
べきである	-10.1856
休日	-10.1861
本です	-10.1862
をもって	-10.1862
何時	-10.1871
るつもりだ	-10.1872
ちゃった	-10.1873
くれました	-10.1874
しましょうか	-10.1887
森の中	-10.1899
欠席	-10.1902
ではなくて	-10.1915
その計画を	-10.1919
ないうちに	-10.1921
のある人	-10.1925
そば	-10.1928
祖父	-10.1929
病気だった	-10.1929
ように見える	-10.193
いても	-10.1933
得る	-10.1942
完	-10.1945
礼儀	-10.1949
囲	-10.195
ピアニスト	-10.195
わざわざ	-10.195
尾	-10.195
振る舞い	-10.195
どっち	-10.195
侮辱	-10.195
放課後	-10.195
胃	-10.195
いたずら	-10.1951
写真を撮	-10.1951
における	-10.1952
けなかった	-10.1952
ギター	-10.1953
合図	-10.1954
ロープ	-10.1955
広告	-10.1955
ふるま	-10.1956
なくちゃ	-10.1957
▁その船は	-10.1959
らしく	-10.1961
▁誰でも	-10.1962
提案した	-10.1963
暑さ	-10.1966
指導者	-10.1968
味方	-10.1969
基本	-10.1971
休んだ	-10.1983
うちの	-10.1984
歯医者	-10.1989
待っていた	-10.199
▁水は	-10.1995
やろう	-10.1999
▁太陽は	-10.2003
▁彼の話は	-10.2003
その仕事	-10.2003
▁何が	-10.2005
ということを	-10.2006
焼	-10.2027
事が出来	-10.2036
たちに	-10.2039
▁今日の午後	-10.2041
この本	-10.2045
のを聞いた	-10.2047
だまされ	-10.2052
部屋の中	-10.2061
離れて	-10.2063
好きです	-10.2063
若く	-10.2071
腕を	-10.2072
隠れ	-10.2078
木が	-10.2088
贈り物を	-10.2096
る事	-10.2111
▁私はあなたに	-10.2115
財布を	-10.2115
つけて	-10.2116
続き	-10.2122
なしでは	-10.2135
ればいい	-10.214
敬	-10.2142
藤	-10.2143
憎	-10.2143
漏	-10.2143
領	-10.2143
を抑え	-10.2143
裕福	-10.2143
を奪っ	-10.2143
背の高い	-10.2143
迷惑	-10.2143
勘定	-10.2144
伸ばし	-10.2144
変わる	-10.2144
▁あそこ	-10.2144
怪我	-10.2145
有効	-10.2146
いかに	-10.2146
強調	-10.2147
相当	-10.215
さわ	-10.215
はるかに	-10.2152
▁彼等は	-10.2154
なしに	-10.2161
賢	-10.2162
続いた	-10.2163
お礼	-10.2173
そうだった	-10.2174
に会いに	-10.2176
▁どちらの	-10.2182
その川	-10.2182
▁私はもう	-10.2198
気付	-10.2199
その事実を	-10.2199
正直な	-10.2205
んですよ	-10.2207
てもらった	-10.2213
の上で	-10.2216
値段が	-10.2218
しまう	-10.2219
野球の試合	-10.2221
わかりません	-10.2223
開く	-10.2228
なくては	-10.223
を持っていた	-10.2236
からね	-10.2248
住む	-10.2249
を愛している	-10.2253
娘が	-10.2254
その機械	-10.2256
彼の顔	-10.2262
夫人	-10.2264
られますか	-10.2265
品物	-10.2269
忠告を	-10.2287
勤	-10.2294
家だ	-10.2295
を動か	-10.2296
入れる	-10.2303
があって	-10.2305
らよいか	-10.2317
わせた	-10.2318
出された	-10.2319
に行きました	-10.2322
注文した	-10.2322
旅行する	-10.2325
を果た	-10.2329
▁彼らは彼を	-10.2332
きり	-10.2337
お持ち	-10.2338
炎	-10.2339
チケット	-10.2339
グラス	-10.2339
沿	-10.2339
データ	-10.2339
幅	-10.2339
谷	-10.2339
軒	-10.2339
冒険	-10.2339
即	-10.2339
房	-10.2339
今ごろ	-10.2339
約束を破	-10.2339
命じた	-10.2339
投票	-10.2339
睡眠	-10.2339
列車に乗り遅れ	-10.2339
引っ越し	-10.2339
さもないと	-10.2339
明るい	-10.2339
友情	-10.234
を選ぶ	-10.234
カーテン	-10.234
管理	-10.234
ジュ	-10.2343
に夢中	-10.2344
に見える	-10.2344
消費	-10.2344
率直	-10.2345
優れた	-10.2345
優しい	-10.2346
満ち	-10.235
幸い	-10.2351
申し上げ	-10.2354
▁ナンシーは	-10.2359
寝ている	-10.2362
だれでも	-10.2364
てもいいですか	-10.2368
他人に	-10.2374
握手	-10.2375
間に合った	-10.2375
ご親切	-10.2381
を書いて	-10.2381
片付け	-10.2388
彼も	-10.2389
▁猫は	-10.2415
腹を立てた	-10.2418
プレゼント	-10.2419
越え	-10.2429
公園で	-10.2432
間違えた	-10.2446
みました	-10.2449
歌った	-10.245
ことがあります	-10.2461
ことではない	-10.2461
その場	-10.2472
ここから	-10.2473
しなければならなかった	-10.2473
るとすぐに	-10.2486
軽蔑	-10.249
ておきなさい	-10.2497
着いて	-10.25
っていった	-10.25
直接	-10.2504
与	-10.2511
になること	-10.2513
分かり	-10.2522
を出して	-10.2525
でもない	-10.2525
どうなる	-10.2531
歌い	-10.2531
挙	-10.2537
乳	-10.2538
尊	-10.2538
戻る	-10.2538
セント	-10.2538
ピー	-10.2539
s	-10.2539
―	-10.2539
熊	-10.2539
スーツケース	-10.2539
建築	-10.2539
目を覚ま	-10.2539
指摘	-10.254
発展	-10.2541
に値する	-10.2541
一年	-10.2541
何年も	-10.2542
誰かが	-10.2543
動物園	-10.2543
現場	-10.2543
にすぎない	-10.2543
話をした	-10.2544
道具	-10.2544
と約束した	-10.2545
と同様に	-10.2546
行われる	-10.2547
不自由	-10.255
勝ち	-10.2551
戦い	-10.2559
忠告した	-10.2561
辞	-10.2562
来なかった	-10.2566
忘れない	-10.2568
財布	-10.2568
に出る	-10.2571
下げ	-10.2576
つもりで	-10.2581
大学で	-10.2587
▁私は彼女を	-10.2593
の中の	-10.2593
低い	-10.2597
おうと	-10.2599
結構です	-10.26
そうですね	-10.2609
入ってきた	-10.2634
出かけた	-10.2641
正直だ	-10.2642
手伝い	-10.2642
に追いつ	-10.2651
通りで	-10.2651
に出かけた	-10.2653
をもっている	-10.2655
▁この車は	-10.2671
降りた	-10.2673
作物	-10.2674
はっきりと	-10.2675
べきか	-10.2676
記者	-10.2676
していて	-10.2679
かける	-10.2684
来るだろう	-10.2687
著	-10.2692
主張	-10.2696
教える	-10.2706
働いて	-10.2712
答えた	-10.2723
の近くに	-10.2725
▁いったい	-10.2728
しかし	-10.273
できるだけ早く	-10.2731
に合わない	-10.2732
特別	-10.2734
敗	-10.2741
を受けて	-10.2742
刺	-10.2742
クリス	-10.2743
チャー	-10.2743
ぴ	-10.2743
宣	-10.2743
ショー	-10.2743
拾	-10.2743
塔	-10.2743
舌	-10.2743
普通の	-10.2743
をもたらした	-10.2743
O	-10.2743
ヴ	-10.2743
玄関	-10.2743
印象	-10.2743
付けた	-10.2743
診察	-10.2743
投資	-10.2744
もよろしいですか	-10.2744
宝石	-10.2745
花瓶	-10.2745
優れている	-10.2746
70	-10.2747
内容	-10.2749
飛ぶ	-10.2749
楽しんで	-10.275
歩け	-10.2751
香り	-10.2752
▁すみませんが	-10.2752
急いだ	-10.2754
事情	-10.2755
見ている	-10.2758
会員	-10.2765
わよ	-10.2766
同時に	-10.277
ブル	-10.2778
がっかりした	-10.278
起こる	-10.2793
試験に合格した	-10.2794
短い	-10.2807
かせた	-10.2807
自分の部屋	-10.2808
してもらいたい	-10.2829
が好きではない	-10.283
月曜日	-10.2834
不思議	-10.2835
来てくれ	-10.2849
立つ	-10.2852
を訪れる	-10.2853
医	-10.2856
ほか	-10.2858
暗い	-10.286
られません	-10.2864
認める	-10.2869
ふり	-10.2874
皆さん	-10.2875
下手	-10.2879
ミルクを	-10.289
家まで	-10.2891
てみよう	-10.2897
作った	-10.2899
が悪かった	-10.29
くらいなら	-10.2908
程度	-10.2909
約束を守る	-10.2909
でさえ	-10.2921
ありがとうございます	-10.2922
今晩	-10.2925
陸	-10.2932
教えてくれた	-10.2945
益	-10.295
概	-10.2951
兵	-10.2951
一般的に	-10.2951
B	-10.2951
徹	-10.2951
地下鉄	-10.2951
玉	-10.2951
純	-10.2951
サイズ	-10.2951
夜更かし	-10.2951
申し訳ありません	-10.2951
階段を	-10.2951
過ごす	-10.2951
CD	-10.2951
群衆	-10.2952
前もって	-10.2952
治療	-10.2952
大きさ	-10.2952
▁概して	-10.2952
▁その時	-10.2953
子供のころ	-10.2954
丘の上に	-10.2954
洗い	-10.2954
デート	-10.2954
つもりだった	-10.2954
証明	-10.2956
にかかっている	-10.2959
よりむしろ	-10.2961
万ドル	-10.2961
の中心	-10.2962
を盗んだ	-10.2964
1000	-10.2969
時刻	-10.2969
荷物	-10.2973
この世	-10.2974
を打っ	-10.2974
何も知らない	-10.2974
話をする	-10.2974
輝いてい	-10.298
その町	-10.2981
るんだ	-10.299
問題だ	-10.2991
なしで	-10.2992
の名前を	-10.2993
切る	-10.2995
試合に勝	-10.3001
幸せな	-10.3005
倒れた	-10.3006
失う	-10.3009
ずにはいられな	-10.301
することができる	-10.302
びっくりした	-10.3021
必要がある	-10.3027
決心した	-10.3028
暖かく	-10.3033
警察に	-10.3035
いましたか	-10.3046
イギリス人	-10.3047
もうこれ以上	-10.3051
りましたか	-10.3054
ーン	-10.3055
近所	-10.3058
続けて	-10.306
町に	-10.3062
▁彼は自分が	-10.3066
ほめ	-10.3067
を考慮に入れ	-10.3068
考え方	-10.3071
来られ	-10.3087
貸してくれ	-10.3092
しまいました	-10.3094
残念だ	-10.3095
私の友人	-10.3107
してはいけません	-10.3117
お前	-10.3117
あんなに	-10.3119
付いた	-10.3121
出ます	-10.3126
輝	-10.3135
熱い	-10.3136
てもいい	-10.3136
らいいか	-10.3138
わね	-10.3144
本物	-10.3154
ジョー	-10.3155
懸命に	-10.3159
禁	-10.3163
問題を解く	-10.3164
液	-10.3164
寂	-10.3164
やいなや	-10.3164
ダイヤ	-10.3164
典	-10.3164
チャンス	-10.3164
一晩中	-10.3164
しゃべる	-10.3164
足りない	-10.3165
老婦人	-10.3165
航海	-10.3165
貴社	-10.3166
ボタン	-10.3166
昇進	-10.3166
を訪問し	-10.3167
姉妹	-10.3169
服装	-10.317
サイン	-10.3174
と言っている	-10.3176
やはり	-10.3177
?」	-10.3178
▁私の兄は	-10.3182
進む	-10.3182
寒かった	-10.319
ビン	-10.3191
に住んでいた	-10.3191
芸術家	-10.3206
▁あいつは	-10.3208
たいした	-10.3209
キス	-10.3213
似ている	-10.3217
を送った	-10.3225
ぼう	-10.3225
▁私の家は	-10.3241
入る	-10.325
てみた	-10.3252
踊り	-10.3256
に気づいた	-10.3261
起こして	-10.328
あんな	-10.3281
捕ま	-10.3291
会える	-10.3296
通っている	-10.3299
行ってしまった	-10.3301
を持っていますか	-10.3307
てもよい	-10.3307
びっくり	-10.3316
されるだろう	-10.3316
話します	-10.3321
宅	-10.3321
来なさい	-10.3324
出せ	-10.3333
始めて	-10.3338
を聞くと	-10.3358
持ち上げ	-10.3358
誤	-10.336
飯	-10.3367
やって来た	-10.3369
尽	-10.3369
秘	-10.3376
岸	-10.3377
闘	-10.338
練	-10.338
ごく	-10.3381
児	-10.3381
スーザン	-10.3381
寺	-10.3381
伏	-10.3381
繰り返し	-10.3381
M	-10.3381
スケート	-10.3381
敷	-10.3381
林	-10.3381
枝	-10.3381
疲れていたので	-10.3381
酷	-10.3381
崩	-10.3381
提供	-10.3382
ボストン	-10.3382
芝居	-10.3382
を必要とする	-10.3382
その少女	-10.3383
ばかげた	-10.3384
ホール	-10.3384
芝生	-10.3384
失望	-10.3387
出来るだけ	-10.3389
ベン	-10.3395
られていた	-10.3395
▁スミス	-10.3397
故障している	-10.3398
ってくる	-10.3398
開発	-10.3398
をあけ	-10.3399
無料	-10.3402
▁その国は	-10.3402
終わらせ	-10.3404
国家	-10.3421
を探している	-10.3422
涙が	-10.3425
午前中	-10.3428
級	-10.343
故障	-10.3434
長年	-10.3435
25	-10.3437
留	-10.3437
ちょ	-10.3443
▁赤ん坊は	-10.3449
然	-10.3458
よくなる	-10.346
廃止	-10.3461
取引	-10.3463
登った	-10.3467
雪のため	-10.3468
実行する	-10.3472
生きる	-10.3477
手紙を書き	-10.3484
ってもらった	-10.3492
浮かんだ	-10.3495
渡った	-10.3496
掛	-10.3497
明るく	-10.3499
▁もしも	-10.3502
チームが	-10.3505
▁学校は	-10.3505
何もない	-10.3505
月曜日に	-10.3505
しながら	-10.3513
この手紙を	-10.3524
述べ	-10.3527
座り	-10.3533
を食べて	-10.3544
おこ	-10.3563
ておいた	-10.3575
夜遅く	-10.3575
んでいます	-10.3576
する必要がある	-10.358
お互い	-10.3589
のことを考え	-10.3595
司	-10.3598
▁彼女は夫	-10.36
群	-10.3602
競	-10.3603
力がある	-10.3603
n	-10.3604
に基づいて	-10.3604
肌	-10.3604
レコード	-10.3604
帳	-10.3604
疑わしい	-10.3604
検討	-10.3604
湯	-10.3604
抵	-10.3604
つまらない	-10.3604
を見送りに	-10.3604
衝突	-10.3604
多数の	-10.3604
離婚	-10.3604
障害	-10.3605
保証	-10.3605
トランプ	-10.3606
もらえませんか	-10.3606
無礼	-10.3608
に従う	-10.3611
するため	-10.3611
試験を受け	-10.3612
このあたり	-10.362
泣いた	-10.3621
今後	-10.3621
▁私達が	-10.3622
行われた	-10.3622
る必要がある	-10.3626
なければいけません	-10.3627
▁私は彼女と	-10.3632
配達	-10.3637
置き忘れ	-10.364
現金	-10.3641
てきている	-10.3642
病気になった	-10.3652
やりなさい	-10.3658
ならぬ	-10.3672
黙っていた	-10.3675
の仕方	-10.3683
じゃないか	-10.3687
の気候は	-10.3688
君も	-10.3695
消えた	-10.3696
と結婚する	-10.3715
に備えて	-10.3716
に参加した	-10.3716
だと思っている	-10.3722
もらえ	-10.3723
世の中	-10.3727
使われてい	-10.373
しかも	-10.373
したくない	-10.3731
二つ	-10.3732
▁私は毎日	-10.3734
加わ	-10.3741
緒	-10.3755
お名前	-10.3759
午前	-10.3759
ことが多い	-10.376
▁その計画は	-10.3767
なぜなら	-10.377
りましょう	-10.378
折り	-10.379
連れ	-10.3797
見たこと	-10.3799
辛	-10.3799
!」	-10.38
らせる	-10.3806
▁あの人は	-10.3819
望んでいる	-10.382
に向けて	-10.3821
ニュー	-10.3824
にわか雨	-10.3827
輪	-10.3829
障	-10.3829
因	-10.383
更	-10.383
スーツ	-10.3831
贈	-10.3831
を犠牲にして	-10.3831
ドライブ	-10.3831
言うまでもなく	-10.3831
伴	-10.3831
掘	-10.3831
ねばならなかった	-10.3831
スーパー	-10.3831
徐々に	-10.3831
アジア	-10.3831
やさしく	-10.3831
▁残念ながら	-10.3831
どころか	-10.3831
討論	-10.3831
小麦	-10.3832
警察官	-10.3832
はいくらですか	-10.3832
ある意味で	-10.3832
解釈	-10.3832
以下	-10.3833
速く走る	-10.3833
たった今	-10.3833
喜ば	-10.3834
雨が降り出した	-10.3835
自信	-10.3837
若いころ	-10.3838
生まれつき	-10.3838
話題	-10.3841
▁いいえ	-10.3844
輸出	-10.3849
▁たいていの	-10.3854
続く	-10.3855
あう	-10.3855
ポー	-10.3859
日記	-10.3865
スリ	-10.3866
に慣れている	-10.3872
▁子供達は	-10.3873
女子	-10.3875
よかったのに	-10.388
申	-10.388
暮らしている	-10.3881
時期	-10.3883
うん	-10.3891
シン	-10.3892
ディー	-10.39
歩いている	-10.3905
買って	-10.3907
教えてくれ	-10.3914
それほど	-10.3929
宿題を終え	-10.3929
るところだった	-10.3932
を見ました	-10.3938
てほしい	-10.3938
変な	-10.3949
その家	-10.3954
税金	-10.3959
夕食後	-10.3959
不思議な	-10.396
あげましょう	-10.3962
▁彼の言葉	-10.3966
大学生	-10.3968
無かった	-10.3971
動く	-10.3971
為	-10.3976
を訪ねた	-10.3976
今や	-10.3981
を理解する	-10.3994
行きたい	-10.3996
立てた	-10.401
与えられ	-10.401
故	-10.401
と考えている	-10.4015
影響を与え	-10.4019
レイ	-10.4032
ティー	-10.4034
へ行きました	-10.4046
私は彼女	-10.4046
支え	-10.4049
勉強している	-10.405
怪	-10.4061
講	-10.4062
納	-10.4062
談	-10.4062
請	-10.4063
『	-10.4063
』	-10.4063
を自慢してい	-10.4063
充	-10.4063
縮	-10.4063
▁実を言うと	-10.4063
デパート	-10.4063
トイレ	-10.4063
湿	-10.4063
剣	-10.4063
囚	-10.4063
正確に	-10.4063
っぽい	-10.4063
とたんに	-10.4064
背が高く	-10.4064
はどこにありますか	-10.4064
いずれ	-10.4064
いわば	-10.4064
あとで	-10.4064
勤務	-10.4065
疑問	-10.4065
すてきな	-10.4066
ペット	-10.4066
を好む	-10.4068
言い訳	-10.4069
両方	-10.4071
有利	-10.4072
カップ	-10.4073
少々	-10.4073
バス停	-10.4075
吸い	-10.4077
すき	-10.4078
世代	-10.4079
を加え	-10.408
▁その店は	-10.4081
たたいた	-10.4082
ってくれる	-10.4085
くなってきた	-10.4087
美しく	-10.4089
だらけ	-10.409
させられた	-10.4099
病気だ	-10.41
日光	-10.4102
してもらった	-10.4102
▁大統領は	-10.4102
サン	-10.4104
▁それらの	-10.4112
クラ	-10.4113
と考えた	-10.4117
終わ	-10.4118
青年	-10.412
が見えます	-10.4121
▁その子供は	-10.4138
週末に	-10.414
焼き	-10.4141
でなければ	-10.4141
勝った	-10.4141
▁俺は	-10.4142
その試合	-10.4155
を説得して	-10.4182
求	-10.4183
ここへ	-10.4184
立ち去	-10.4187
この仕事を	-10.4198
車を買う	-10.4208
高さ	-10.4209
行けない	-10.4214
人とも	-10.4222
バスが	-10.4225
返す	-10.4231
電話番号を	-10.4233
と信じている	-10.424
ここにいる	-10.425
非常	-10.426
ジョージ	-10.4261
まいと	-10.4264
をもら	-10.4286
予定だ	-10.4292
叫	-10.4292
でしょ	-10.4293
婚	-10.4298
惑	-10.4299
ついていた	-10.4299
失敗する	-10.43
以内	-10.4301
則	-10.4301
シカゴ	-10.4302
天気予報	-10.4302
間違った	-10.4302
L	-10.4302
ぴったり	-10.4302
イエス	-10.4302
わざと	-10.4302
黄色	-10.4302
資格	-10.4302
観察	-10.4302
帽子をかぶ	-10.4303
まっすぐ	-10.4303
快適	-10.4304
時間がかかる	-10.4305
観光	-10.4305
私ども	-10.4307
▁この時計は	-10.4307
揺れ	-10.4309
寝る前に	-10.4313
文法	-10.4316
まわり	-10.4317
週	-10.4319
安心	-10.4319
申し分	-10.4321
変わって	-10.4323
狭い	-10.4324
病人	-10.4329
というわけではない	-10.4331
▁もし私が	-10.4336
重要である	-10.4336
押	-10.434
アル	-10.4343
本を持っている	-10.4353
期間	-10.4354
日々	-10.4366
られます	-10.4366
方がいいよ	-10.4369
いっぱいだった	-10.4369
小さく	-10.4375
お会いし	-10.4377
恥ずかしい	-10.4383
身体	-10.4388
我が家	-10.4394
気づいて	-10.4396
そこへ行	-10.4403
のそばに	-10.4404
▁彼が来る	-10.4406
わかります	-10.4408
苦労した	-10.4409
の使い方	-10.4409
おきなさい	-10.441
遅刻した	-10.4411
他の人	-10.4416
背中	-10.4431
見なさい	-10.4434
戦った	-10.4437
テレビを見る	-10.4444
一言	-10.4447
を変えた	-10.4448
▁この仕事は	-10.4452
になりますか	-10.4456
の中で一番	-10.446
触	-10.4485
を求めた	-10.4487
小説家	-10.4489
朝早く	-10.4496
礼	-10.4501
▁その車は	-10.4516
常識	-10.4524
なのに	-10.4533
粉	-10.4537
あいにく	-10.4538
首相	-10.4538
爆	-10.4542
沢	-10.4542
労	-10.4542
志	-10.4543
撮	-10.4545
泥	-10.4545
棒	-10.4545
芸	-10.4545
永	-10.4545
オフィス	-10.4545
パスポート	-10.4545
覆	-10.4545
ガラス	-10.4545
涼	-10.4545
粗	-10.4545
汗	-10.4545
最後まで	-10.4545
畑	-10.4545
縁	-10.4545
気の毒	-10.4546
請求	-10.4546
眼鏡	-10.4546
沈黙	-10.4546
心地	-10.4547
保護	-10.4547
軍隊	-10.4547
指輪	-10.4547
例えば	-10.4547
採用	-10.4548
思想	-10.4548
▁今年の	-10.4548
赤字	-10.4549
一生懸命働いた	-10.455
戻ってくる	-10.4552
放送	-10.4553
伝言	-10.4554
ポール	-10.4555
を見つめ	-10.4555
が必要である	-10.456
長生き	-10.4563
とともに	-10.4564
見られる	-10.4574
おろ	-10.4586
その子	-10.4589
あてに	-10.4592
約束を守	-10.4601
笑う	-10.4605
▁アンは	-10.4608
感じる	-10.4615
▁父は私に	-10.4618
分かりません	-10.4619
ふさ	-10.4628
を傷つけ	-10.4648
残念です	-10.4653
その話を	-10.4653
アメリカへ	-10.467
今月	-10.4671
横になって	-10.4672
たまに	-10.468
広く	-10.468
90	-10.4681
そのニュースを	-10.4685
良くない	-10.4687
物質	-10.4688
失業	-10.4697
あき	-10.4697
どちらも	-10.4709
もらえる	-10.4712
かぜ	-10.4715
16	-10.4716
その建物	-10.472
に参加し	-10.4722
いませんでした	-10.4731
行けなかった	-10.4738
バスに乗り	-10.4747
が起こる	-10.4753
ケイト	-10.4765
計画について	-10.4771
貴	-10.4784
言わなかった	-10.479
井	-10.4794
互	-10.4794
築	-10.4795
l	-10.4795
履	-10.4795
正確な	-10.4795
ジョギング	-10.4795
ビジネス	-10.4795
是	-10.4795
糸	-10.4795
ざるをえなかった	-10.4795
匂	-10.4795
髪の毛	-10.4795
範囲	-10.4796
覚悟	-10.4796
裁判	-10.4796
重大な	-10.4796
乗り換え	-10.4797
冷静	-10.4797
お会いでき	-10.4797
混乱	-10.4797
寄付	-10.4797
読める	-10.4799
似合う	-10.48
未来	-10.4802
壊れた	-10.4804
の世話をする	-10.4809
報道	-10.4811
学校へ行く	-10.4813
こたえ	-10.4815
を発見した	-10.4818
盛り	-10.4822
バイ	-10.4825
発音	-10.4825
を捕まえ	-10.4828
学校に行く	-10.4836
専門家	-10.4837
冊の本	-10.4841
贈り物	-10.4857
長いこと	-10.4858
欠席した	-10.4869
▁彼は父親	-10.4873
するような	-10.4882
置き	-10.4882
ネコ	-10.4885
▁彼の家は	-10.4886
倒れ	-10.489
寄せ	-10.492
交通事故で	-10.4921
何よりも	-10.4928
どき	-10.4931
信じない	-10.4934
君たち	-10.4941
知りたい	-10.4943
それ以上	-10.4949
尊敬している	-10.495
もっと早く	-10.4958
見物	-10.4959
お金を持ってい	-10.497
替	-10.4971
という事実	-10.4973
守る	-10.4974
せられた	-10.4977
止まった	-10.4982
でしたら	-10.4988
だけだった	-10.4995
すのに	-10.5005
るのが好きです	-10.5024
ことがありません	-10.5026
くださ	-10.5038
車の運転	-10.504
層	-10.5042
わずかな	-10.5044
スペイン	-10.5048
稼	-10.505
解雇	-10.505
威	-10.5051
係	-10.5051
史	-10.5052
桜	-10.5052
P	-10.5052
h	-10.5052
河	-10.5052
誓	-10.5052
宮	-10.5052
目が覚め	-10.5052
デザイン	-10.5052
懐	-10.5052
きょう	-10.5052
怠け者	-10.5052
を追いかけ	-10.5052
明らかだ	-10.5052
漫画	-10.5052
ようやく	-10.5052
の持ち主	-10.5052
伸び	-10.5053
いつまでも	-10.5054
家を建て	-10.5054
とりわけ	-10.5055
あす	-10.5055
市民	-10.5055
表情	-10.5056
平等	-10.5057
役割	-10.5058
知らず	-10.506
飛行	-10.5061
ございます	-10.5064
決心をした	-10.5065
になってしまった	-10.5065
されていない	-10.5071
入場	-10.5073
注目	-10.5074
売れ	-10.5075
本を読んだ	-10.5078
199	-10.5078
欠点がある	-10.508
うれしく	-10.5081
賃金	-10.5083
聞きなさい	-10.509
ミン	-10.5094
明日までに	-10.51
ゆう	-10.5104
てしまい	-10.5108
物事を	-10.5112
何処	-10.5112
傘	-10.5117
▁その事故で	-10.5126
一歩	-10.513
医学	-10.5135
新車	-10.5139
ありませんでした	-10.5141
の名前は	-10.5149
▁姉は	-10.5151
ようとしていた	-10.516
うまくいって	-10.5163
してもいいですか	-10.5167
鉄道	-10.5172
たいと思っている	-10.5187
っきり	-10.5209
故障した	-10.5232
男の人	-10.5235
つぶし	-10.5245
ここに来る	-10.5249
女王	-10.5268
増えている	-10.5292
候補者	-10.5297
銀	-10.531
将	-10.5312
侵	-10.5313
察	-10.5314
条	-10.5314
九	-10.5314
了	-10.5315
伺	-10.5315
恩	-10.5315
貫	-10.5315
刑務所	-10.5315
▁マユコは	-10.5315
偽	-10.5315
剤	-10.5315
樹	-10.5315
陣	-10.5315
ジャズ	-10.5315
スタイル	-10.5315
稲	-10.5315
うるさい	-10.5315
システム	-10.5315
磁	-10.5315
なきゃ	-10.5315
優秀	-10.5315
木の葉	-10.5315
博士	-10.5315
応募	-10.5315
気を付け	-10.5315
直ちに	-10.5316
のが聞こえた	-10.5316
済ませ	-10.5316
天井	-10.5317
答案	-10.5317
しゃべっ	-10.5317
かまいません	-10.5318
大事な	-10.5318
買えない	-10.5318
就職	-10.5318
誇り	-10.5318
設立	-10.5319
話し合った	-10.532
泣き出した	-10.5321
帰宅	-10.5321
小切手	-10.5321
帰宅する	-10.5321
駅に着いた	-10.5323
古代	-10.5323
時代遅れ	-10.5324
理解できなかった	-10.5325
▁そのニュースは	-10.5325
生きられない	-10.5327
世界平和	-10.5327
臭い	-10.5332
不利	-10.5335
部下	-10.5335
ないといけない	-10.5335
表面	-10.5336
海外旅行	-10.5338
泣く	-10.5342
晴らし	-10.5343
ごみ	-10.5347
分野	-10.5349
暴力	-10.535
ボス	-10.5351
寝ていた	-10.5356
の世話	-10.5362
家に帰った	-10.5366
発生	-10.537
はずれ	-10.5373
▁会議は	-10.5381
▁母親は	-10.5382
人はいない	-10.5386
をひき	-10.5389
ガー	-10.539
万事	-10.5393
その知らせに	-10.5395
留め	-10.5409
重要だ	-10.541
来ました	-10.5428
事がある	-10.5435
その仕事を終え	-10.5445
お昼	-10.545
言うまでもない	-10.5454
会いに来	-10.5459
一言も	-10.546
今日の午後	-10.5461
重さ	-10.5463
▁この家は	-10.5483
一本	-10.5486
ぁ	-10.5507
を求める	-10.5527
思われ	-10.5528
建	-10.5535
ねえ	-10.5536
詰	-10.5545
▁それから	-10.5557
生徒たち	-10.5564
動物である	-10.5566
いうこと	-10.5569
困難な	-10.5572
汚れ	-10.5578
が増え	-10.5583
のをやめ	-10.5583
ヨ	-10.5584
慮	-10.5585
ウサギ	-10.5585
償	-10.5585
旗	-10.5585
簡単な	-10.5585
冷蔵庫	-10.5585
核	-10.5585
おばあさん	-10.5585
クッキー	-10.5585
メンバー	-10.5585
却	-10.5585
塀	-10.5585
奴隷	-10.5585
電話が鳴った	-10.5585
早寝早起き	-10.5585
最良の	-10.5585
スキャンダル	-10.5585
なおさら	-10.5585
アウト	-10.5585
ワープロ	-10.5586
模様	-10.5586
群集	-10.5587
改善	-10.5587
忠実	-10.5587
かまわない	-10.5588
辞職	-10.5588
に恵まれ	-10.5588
出ていった	-10.5589
反応	-10.559
毎月	-10.559
騒ぎ	-10.5591
知らせを聞いて	-10.5591
間もなく	-10.5592
そうに見える	-10.5593
うまくいく	-10.5597
眠れなかった	-10.5598
ザー	-10.5598
泳げない	-10.5598
山田	-10.5599
すべ	-10.5601
▁生徒たちは	-10.5605
ブラウンさん	-10.5605
必要があります	-10.5607
利口だ	-10.5609
時間通りに	-10.561
音を立て	-10.561
達成	-10.5611
無知	-10.5614
一枚	-10.562
に間に合うように	-10.5621
が上手だ	-10.5625
を伝える	-10.5625
換え	-10.5629
▁祖父は	-10.5632
を見つける	-10.5632
つづけた	-10.5638
してもらう	-10.5644
集めた	-10.5649
大好きです	-10.5655
▁妹は	-10.5657
なぁ	-10.5664
習得	-10.5666
知られ	-10.5667
▁それらは	-10.5669
隣人	-10.5673
小鳥	-10.5679
外見	-10.568
彼等	-10.5684
ということである	-10.57
がちであ	-10.57
かえって	-10.5707
洋服	-10.5709
るのを感じた	-10.571
昼食を食べ	-10.5738
然と	-10.5739
道を教えてくれ	-10.5742
▁弟は	-10.5743
下さ	-10.5747
電話を切	-10.5755
大切だ	-10.5755
言ってくれ	-10.5769
諸	-10.5772
そんなことをする	-10.5776
ごめん	-10.5782
眠った	-10.5784
と彼は言っ	-10.5791
ふれ	-10.5802
ベー	-10.5803
に従って	-10.5811
行ったことがある	-10.5811
さえすれば	-10.5812
信じている	-10.5833
製造	-10.5836
音楽が好き	-10.5837
私の父	-10.5849
新しい仕事	-10.5854
顔をしている	-10.5857
仰	-10.5862
検	-10.5862
鏡	-10.5863
歴	-10.5863
c	-10.5863
ソフト	-10.5863
火曜日	-10.5863
ダイエット	-10.5863
渋	-10.5863
猛	-10.5863
跳	-10.5863
ネズミ	-10.5863
ビデオ	-10.5863
削	-10.5863
深刻な	-10.5863
エレベーター	-10.5863
キャンプ	-10.5863
坊	-10.5863
獄	-10.5863
高価な	-10.5863
どう思いますか	-10.5863
排	-10.5863
様々な	-10.5863
ばかりでなく	-10.5863
奈良	-10.5863
遅くまで起きてい	-10.5864
企画	-10.5864
誰にでも	-10.5864
観光客	-10.5864
住民	-10.5865
混雑	-10.5865
コートを着	-10.5866
損失	-10.5866
千円	-10.5867
▁なるほど	-10.5868
立ち上がった	-10.5868
観客	-10.5868
プール	-10.5868
しばらくの間	-10.5869
時間どおりに	-10.587
建てられた	-10.587
およそ	-10.5871
ふりをした	-10.5871
を示す	-10.5872
高校生	-10.5874
代わり	-10.5876
当然のこと	-10.5876
支配人	-10.5876
ウエ	-10.5883
▁その映画は	-10.5891
食べ過ぎ	-10.5901
残っている	-10.5905
そこへ行った	-10.5905
業界	-10.5913
特別な	-10.5914
学び	-10.5914
聞かせ	-10.5919
45	-10.5922
熱心に勉強し	-10.5928
走っている	-10.5932
通学	-10.5936
になれる	-10.5941
大金を	-10.5942
スミス氏	-10.5944
らどうですか	-10.5957
必要としている	-10.596
部屋から出	-10.5968
おかげで	-10.5969
そう言った	-10.5986
雨のために	-10.5986
提	-10.5987
学んだ	-10.599
その会合	-10.6
彼にとって	-10.6002
この辞書	-10.601
ようとしている	-10.601
しようとしている	-10.6029
来てください	-10.603
を利用して	-10.6038
散歩に出かけ	-10.604
お目にかか	-10.6041
へ行きます	-10.6062
毎	-10.6068
仲良く	-10.6077
せずに	-10.6078
おこう	-10.6082
寒くな	-10.6085
僕も	-10.6093
が大好きだ	-10.6096
書かれた	-10.6107
分間	-10.6107
致	-10.6137
計画を立て	-10.614
彼の名前を	-10.6141
パーティーに来	-10.6146
導	-10.6147
けがをした	-10.6148
偉	-10.6149
寸	-10.6149
虚	-10.6149
ガソリン	-10.6149
躍	-10.6149
露	-10.6149
民主主義	-10.6149
索	-10.6149
交通渋滞	-10.6149
おめでとう	-10.6149
往	-10.6149
パソコン	-10.6149
名古屋	-10.6149
教科書	-10.6149
灰	-10.6149
督	-10.6149
フォーク	-10.6149
ステーキ	-10.6149
ほこり	-10.6149
目を閉じて	-10.6149
英雄	-10.6149
改革	-10.6149
ように思われる	-10.615
に従事してい	-10.615
当たった	-10.615
伝統	-10.615
そのニュースを聞いて	-10.615
納得	-10.615
読み終え	-10.6151
つらい	-10.6151
その件について	-10.6152
多少	-10.6153
信念	-10.6153
静かな	-10.6155
から見ると	-10.6155
バイク	-10.6156
小包	-10.6157
▁この機械は	-10.6157
第二	-10.6157
要素	-10.6157
買える	-10.6158
少数	-10.616
割れ	-10.616
うれしかった	-10.6165
を引き受け	-10.6165
その知らせを	-10.6168
社員	-10.617
望む	-10.6172
帰国	-10.6178
が多かった	-10.6182
並んで	-10.6182
に会いました	-10.6187
枯れ	-10.6187
盗み	-10.6189
▁地球は	-10.619
の忠告に従	-10.6191
になりそうだ	-10.6192
考えていた	-10.6199
王様	-10.6216
を怒らせ	-10.6226
▁私は父	-10.6229
人種	-10.6233
育った	-10.6233
することにしてい	-10.6236
ニック	-10.6239
行きましょう	-10.624
夢を見	-10.6241
諸国	-10.6243
と呼ばれる	-10.6249
軽い	-10.625
と呼ばれ	-10.6262
乗せ	-10.6263
となって	-10.6264
どうしたの	-10.6264
書物	-10.6269
すぎます	-10.6269
今でも	-10.6276
僕ら	-10.6304
外に出	-10.632
今にも	-10.6339
ないように気をつけ	-10.6342
震え	-10.6352
彼に会う	-10.6357
の方へ	-10.6362
当てはまる	-10.6364
不正	-10.6365
ゃ	-10.6375
学習	-10.6378
しても無駄だ	-10.6392
短く	-10.6392
る事ができ	-10.6399
祖	-10.6406
景	-10.6411
ナンシー	-10.6412
泳げる	-10.6413
をつかんだ	-10.6415
奥	-10.6423
この絵	-10.6426
▁あの男	-10.6428
術	-10.6434
選ばれ	-10.6434
忙	-10.6435
構成	-10.6435
手伝う	-10.6438
管	-10.6441
革	-10.6441
述	-10.6441
録	-10.6442
印	-10.6442
プロジェクト	-10.6443
綿	-10.6443
謎	-10.6443
じょう	-10.6443
むずかしい	-10.6443
縫	-10.6443
哀	-10.6443
成し遂げ	-10.6443
我慢し	-10.6443
きわめて	-10.6443
坂	-10.6443
ギターを弾	-10.6443
負傷した	-10.6443
をもたらす	-10.6443
と呼ぶ	-10.6443
ちっとも	-10.6443
ふつう	-10.6443
極めて	-10.6443
ドアを閉め	-10.6444
パーセント	-10.6444
民族	-10.6444
呼吸	-10.6444
惑星	-10.6444
勧めた	-10.6445
ボーイ	-10.6445
ゆうべ	-10.6445
耐えられない	-10.6447
沢山	-10.6447
節約	-10.6447
親友	-10.6448
リーダー	-10.6449
信頼できる	-10.6453
合計	-10.6453
聞きました	-10.6454
記入	-10.6455
速度	-10.6456
共通	-10.6457
結び	-10.6457
はずはない	-10.6458
タクシーに乗	-10.6459
進んでいる	-10.6465
に追いつく	-10.6468
座席	-10.6471
頂上	-10.6473
そうでない	-10.6478
僕たち	-10.6479
▁今回	-10.6487
肉体	-10.6488
ためになる	-10.6492
▁もし彼が	-10.65
を訪ね	-10.651
言いなさい	-10.6525
見たことがない	-10.6525
そこに行く	-10.6528
▁鳥は	-10.653
ことになっています	-10.6533
▁ほとんどの	-10.6552
と同じように	-10.6553
病気で寝てい	-10.6562
この地域	-10.6578
家の中	-10.6581
5%	-10.6588
▁妻は	-10.6607
の予約を	-10.6611
そんな事を	-10.6619
下ろし	-10.6626
行かなかった	-10.663
に応じ	-10.6633
が大好き	-10.6642
級友	-10.6676
ぬれ	-10.6677
探していた	-10.6681
ロス	-10.6692
ぐっすり	-10.6694
専門	-10.6697
つづけ	-10.6719
へ行きたい	-10.6719
瞬	-10.6731
ノー	-10.6735
こっち	-10.6737
徒	-10.6738
航	-10.6741
投げ	-10.6742
規	-10.6744
懸	-10.6744
衛	-10.6745
裁	-10.6745
武	-10.6745
麗	-10.6746
トンネル	-10.6746
ピカソ	-10.6746
矢	-10.6746
じゅう	-10.6746
太平洋	-10.6746
無作法	-10.6746
雨が降れば	-10.6746
とは違う	-10.6746
フレッド	-10.6746
ブライアン	-10.6746
鶏	-10.6746
なくてはなりません	-10.6746
のおかげだ	-10.6746
ファイル	-10.6746
有能な	-10.6746
肺	-10.6746
悪口を言う	-10.6746
涙を流し	-10.6746
のももっともだ	-10.6746
チェス	-10.6746
維持	-10.6746
敏感	-10.6746
爆弾	-10.6747
若く見える	-10.6747
承知	-10.6747
はいかが	-10.6748
ヨット	-10.6748
お客様	-10.6748
婚約	-10.6749
を思いついた	-10.6749
同士	-10.6749
コピー	-10.675
難民	-10.675
ポスト	-10.6752
▁この薬は	-10.6752
重要性	-10.6752
使われる	-10.6752
を横切	-10.6754
苦痛	-10.6754
逃げ出した	-10.6754
を断った	-10.6755
必要はありません	-10.6755
を開けて	-10.6757
を選んだ	-10.6757
新たな	-10.6758
役に立たない	-10.6758
適用	-10.6759
ペンキ	-10.6759
よく似ている	-10.6759
中国語	-10.676
少しずつ	-10.676
戻ってきた	-10.676
何時ですか	-10.6762
用紙	-10.6765
の勉強を	-10.6768
団体	-10.677
受け取る	-10.677
ルール	-10.677
知らせてください	-10.6771
できれば	-10.6773
お兄さん	-10.6775
祭り	-10.6777
面白かった	-10.6778
少年たちは	-10.6779
そのうち	-10.6781
貴重な	-10.6783
▁委員会は	-10.6786
辛い	-10.6789
そんなことを言う	-10.6791
手助け	-10.6798
英語で書かれ	-10.68
▁ジョージは	-10.6802
くださって	-10.6804
ようなものだ	-10.6812
▁この辞書は	-10.6812
お宅	-10.6828
その計画を実行	-10.683
ことを言う	-10.683
開き	-10.6838
電話番号	-10.6843
注意しなさい	-10.6848
黙ってい	-10.6849
に応じて	-10.6861
経済的	-10.6862
▁だれが	-10.6873
テレビを見てい	-10.6899
早く起きる	-10.6904
つけられ	-10.6917
が出る	-10.6918
もう一つ	-10.6927
住んでいた	-10.6932
言ってください	-10.6934
物理	-10.6956
指示	-10.6976
近所の人	-10.698
たずね	-10.6987
衣服	-10.7006
になっています	-10.7006
ブラウン	-10.7026
年をと	-10.7031
傾向	-10.7048
展	-10.7055
瓶	-10.7055
胆	-10.7057
ニング	-10.7058
:	-10.7058
適切な	-10.7058
携	-10.7058
華	-10.7058
d	-10.7058
メキシコ	-10.7058
さまざまな	-10.7058
ズボン	-10.7058
ゼ	-10.7058
ルーシー	-10.7058
叔母さん	-10.7058
墜	-10.7058
豆	-10.7058
に精通している	-10.7058
ファン	-10.7058
ロボット	-10.7058
堅	-10.7058
途方に暮れ	-10.7058
から判断すると	-10.7058
吐	-10.7058
既	-10.7058
遅かれ早かれ	-10.7058
無視した	-10.7058
横たわっ	-10.7059
会に出席	-10.7059
食卓	-10.7059
すこし	-10.7059
営業	-10.706
美術	-10.706
貧困	-10.706
申し込み	-10.706
予算	-10.706
を除いて	-10.706
思い出せない	-10.706
▁私の妹は	-10.7061
オーバー	-10.7061
稼ぐ	-10.7061
よりもむしろ	-10.7064
収集	-10.7065
苦しんでい	-10.7065
に対し	-10.7065
野原	-10.7066
鋭い	-10.7068
▁僕は君	-10.7069
二人とも	-10.7069
メモ	-10.7069
▁その部屋は	-10.707
会計	-10.7076
演じ	-10.7078
学生時代	-10.7079
店員	-10.7081
人格	-10.7083
口論	-10.7087
込んでいる	-10.7091
事柄	-10.7095
会いましょう	-10.7095
難しく	-10.7098
身長	-10.7101
関係がない	-10.7104
科目	-10.711
届く	-10.7114
完全	-10.7117
上達	-10.7122
の価値は	-10.7125
野心	-10.7128
を恐れて	-10.7148
話を聞いて	-10.7153
その光景を見	-10.7159
▁その話は	-10.7159
権力	-10.7161
ことを知っている	-10.7165
逃れ	-10.7179
もう一杯	-10.7185
の住所を	-10.7187
溺れ	-10.72
▁お父さんは	-10.7201
ことはありません	-10.7204
使っている	-10.7206
話すこと	-10.7212
植	-10.7213
向いて	-10.7221
黙って	-10.7233
ように見えた	-10.724
自分の考えを	-10.7258
を飼っている	-10.7267
を持ってきて	-10.727
なくなっている	-10.727
彼の勇気	-10.7271
アップ	-10.7285
うれし	-10.7296
書き留めた	-10.7316
黙	-10.7318
のは当然だ	-10.7326
賃	-10.7336
泳	-10.7345
しゃべり	-10.7347
指導	-10.7353
休んで	-10.7368
揺	-10.7371
眠っていた	-10.7378
の気持ちを	-10.7378
操	-10.7378
己	-10.7379
廃	-10.738
博	-10.7381
譲	-10.7381
隔	-10.7381
称	-10.7381
アドバイス	-10.7381
柔	-10.7381
潮	-10.7381
烈	-10.7381
網	-10.7381
アルコール	-10.7381
パイロット	-10.7381
惨	-10.7381
砲	-10.7381
いらいらし	-10.7381
F	-10.7381
ジュース	-10.7381
ッシュ	-10.7381
初心者	-10.7381
好奇心	-10.7381
曇	-10.7381
永久に	-10.7381
逮捕された	-10.7381
クラシック	-10.7381
グリーン	-10.7381
ぷ	-10.7381
克服	-10.7381
そちら	-10.7381
大臣	-10.7381
承認	-10.7381
食糧	-10.7381
ことが出来なかった	-10.7381
見舞い	-10.7382
さよなら	-10.7382
裁判官	-10.7382
開かれる	-10.7382
ことがよくある	-10.7382
暮らす	-10.7382
住宅	-10.7382
ような人ではない	-10.7382
文章	-10.7382
西洋	-10.7383
車を運転する	-10.7383
に遅れないように	-10.7383
自己	-10.7383
コンテスト	-10.7383
両方とも	-10.7384
論争	-10.7384
風景	-10.7384
▁私の姉は	-10.7385
電報	-10.7385
じきに	-10.7385
下がった	-10.7386
絶望	-10.7387
着陸	-10.7387
▁ほら	-10.7388
意思	-10.739
理想	-10.739
ごめんなさい	-10.7391
いまだに	-10.7397
数字	-10.7397
を示した	-10.7399
滞在中	-10.74
文明	-10.7401
▁彼の意見は	-10.7401
お金を全部	-10.7402
ジョンソン	-10.7403
まとめ	-10.7403
日常	-10.7404
会わない	-10.7406
を表す	-10.7411
人は誰でも	-10.7416
助力	-10.7416
働いていた	-10.7416
に夢中になってい	-10.7424
歩けない	-10.7425
時間かかった	-10.7426
好きでない	-10.7427
歳の時	-10.7433
▁アメリカでは	-10.7433
続けている	-10.7434
に住んで	-10.7436
議会	-10.7438
覚えています	-10.7443
が嫌いだ	-10.7446
新しく	-10.7453
運んで	-10.7456
入らない	-10.7462
授業中	-10.7467
眠れ	-10.7467
こぼし	-10.7468
▁聴衆は	-10.747
の長さ	-10.7473
しだい	-10.748
この夏	-10.7484
に興味がある	-10.7492
ナイ	-10.7508
宿題を手伝って	-10.7508
かけていた	-10.7511
の主な	-10.754
大事に	-10.7548
▁今すぐ	-10.7576
私の名前	-10.7576
起こって	-10.758
させよう	-10.7595
冷え	-10.7604
生徒達	-10.7605
進め	-10.7611
結構	-10.7615
気にしない	-10.7641
私の兄	-10.7652
の数が	-10.7663
たくなかった	-10.7673
自動	-10.7697
手荷物	-10.7707
釈	-10.7712
企	-10.7712
句	-10.7713
響	-10.7714
症	-10.7714
埋め合わせ	-10.7714
m	-10.7714
歓	-10.7714
忍	-10.7714
殿	-10.7714
バイオリン	-10.7714
唱	-10.7714
貢献	-10.7714
イングランド	-10.7714
蔵	-10.7714
餌	-10.7714
アイデア	-10.7714
エメット	-10.7714
縛	-10.7714
錠	-10.7714
随	-10.7714
浅	-10.7714
鎮	-10.7714
N	-10.7714
チョコレート	-10.7714
巣	-10.7714
確認し	-10.7714
鎖	-10.7714
閣	-10.7714
それ自体	-10.7714
キャプテン	-10.7714
タバコを吸っ	-10.7714
川を泳いで渡	-10.7714
I	-10.7714
見つからない	-10.7714
育てられた	-10.7714
分析	-10.7714
が豊富	-10.7714
急速に	-10.7715
お姉さん	-10.7715
おじいさん	-10.7715
利口な	-10.7715
あくまで	-10.7715
決まり	-10.7715
▁学生たちは	-10.7716
付き合い	-10.7716
毛布	-10.7716
フィート	-10.7716
規制	-10.7716
何事も	-10.7716
かぎり	-10.7717
落ち着か	-10.7717
部屋を掃除し	-10.7717
集まり	-10.7717
何もかも	-10.7718
といけないから	-10.7718
好まない	-10.7718
知恵	-10.7718
本屋	-10.7719
に劣らず	-10.7719
話し合い	-10.7719
何も言わなかった	-10.7719
ゴミ	-10.7721
リング	-10.7721
を見てごらん	-10.7722
移動	-10.7723
私に会いに来	-10.7725
も同然だ	-10.7726
だいたい	-10.7727
がちだ	-10.7728
無関心	-10.7729
のせいにし	-10.7731
引用	-10.7731
うまくいった	-10.7734
ライト	-10.7735
話せない	-10.7735
延期された	-10.7736
大陸	-10.7738
痛む	-10.7738
働け	-10.7739
ことが出来ます	-10.774
どれでも	-10.7741
ひざ	-10.7744
ココ	-10.7746
飲め	-10.7754
▁お茶を	-10.7756
▁彼の考えは	-10.7761
大衆	-10.7763
済み	-10.7768
帰宅し	-10.7803
真相	-10.7808
をみて	-10.7821
を呼んで	-10.7859
燃えてい	-10.7865
身につけ	-10.7877
訪れる	-10.7881
を経験し	-10.7891
▁向こうに	-10.7893
しょう	-10.7915
いけません	-10.7918
息子さん	-10.7929
どうしよう	-10.7938
てごらん	-10.7962
に変え	-10.7969
本気で	-10.7995
がっかり	-10.7996
狭	-10.8027
ぱ	-10.8039
▁部屋には	-10.804
災	-10.8055
麻	-10.8056
ざるを得なかった	-10.8057
悟	-10.8059
D	-10.8059
シェイクスピア	-10.8059
債	-10.8059
拒否した	-10.8059
蜂	-10.8059
かも知れない	-10.8059
にも関わらず	-10.8059
次世界大戦	-10.8059
に巻き込まれ	-10.8059
尻	-10.8059
謀	-10.8059
わけにはいかない	-10.8059
原子力	-10.8059
寿	-10.8059
松	-10.8059
プラン	-10.8059
妬	-10.8059
稿	-10.8059
そういうわけで	-10.8059
の区別が	-10.8059
脈	-10.8059
▁まさか	-10.8059
ちらっと	-10.8059
スイス	-10.8059
何が起こるか	-10.8059
目覚め	-10.8059
孤独	-10.8059
を取り戻した	-10.8059
次々に	-10.806
にまさる	-10.806
ホテルに泊ま	-10.806
が一番好きです	-10.8061
駄目	-10.8061
を与えてくれる	-10.8061
火災	-10.8062
人もいれば	-10.8062
異常	-10.8062
ヘビ	-10.8063
関連	-10.8063
感覚	-10.8063
タイム	-10.8064
値引き	-10.8064
英語を学ぶ	-10.8066
セット	-10.8067
優しく	-10.8067
行きたくない	-10.8068
いかなる	-10.8068
厳しく	-10.8068
不在	-10.807
▁首相は	-10.8075
▁この川は	-10.8077
登山	-10.8079
その小説	-10.8081
陽気	-10.8081
前進	-10.8081
日おきに	-10.8082
気味	-10.8084
新型	-10.8084
気温	-10.8087
▁ある日	-10.8087
進行	-10.8089
朝食前に	-10.809
生活費	-10.8091
多くの人々が	-10.8098
腕時計	-10.8099
暮らし向きが	-10.8102
さっぱり	-10.8104
わが国	-10.8108
▁さて	-10.8112
▁祖母は	-10.8118
そのことで	-10.8121
楽しみにしてい	-10.8136
悲しそう	-10.8138
私の意見は	-10.8141
を買いました	-10.8142
やって来	-10.8146
どのような	-10.8175
ことは出来ない	-10.8175
書け	-10.8175
野球をする	-10.8184
百万	-10.8225
を助けた	-10.8228
自動車事故	-10.8231
なんでしょう	-10.8237
ぬけ	-10.8237
車に乗	-10.8237
るのを忘れ	-10.8257
手伝ってくれる	-10.8294
賢明で	-10.8316
骨折	-10.8322
を買ってくれた	-10.8324
会合に出席	-10.8335
生活を送っ	-10.8346
を買いたい	-10.8374
静かにしてい	-10.8375
貯	-10.8385
日本に来	-10.8412
徳	-10.8413
技	-10.8414
束	-10.8414
模	-10.8415
ベンチ	-10.8416
滞	-10.8416
X	-10.8416
u	-10.8416
行方不明	-10.8416
天然資源	-10.8416
E	-10.8416
▁太郎は	-10.8416
かろうじて	-10.8416
を引き起こした	-10.8416
インターネット	-10.8416
ガイド	-10.8416
顔色が悪い	-10.8416
アルバム	-10.8416
オリンピック	-10.8416
タオル	-10.8416
甲	-10.8416
ギリシャ	-10.8416
セールスマン	-10.8416
危うく	-10.8416
ろうそく	-10.8416
田中さん	-10.8416
うそをついた	-10.8416
穏やか	-10.8416
何をすべきか	-10.8416
必要はなかったの	-10.8416
横浜	-10.8417
討議	-10.8417
真夜中	-10.8417
ほうがましだ	-10.8417
燃料	-10.8417
▁私の趣味は	-10.8417
武器	-10.8417
きっぱり	-10.8418
わがまま	-10.8418
を選んで	-10.8418
材料	-10.8418
階級	-10.8418
殺人事件	-10.8418
革命	-10.8418
喜ぶ	-10.8419
だいぶ	-10.8419
速く走った	-10.8419
保存	-10.8419
▁私の時計は	-10.8419
ゴール	-10.842
泣いている	-10.842
明日の午後	-10.842
を養う	-10.8421
我が社	-10.8421
位置	-10.8422
見えなくなった	-10.8422
共同	-10.8422
集まった	-10.8422
家を出た	-10.8425
美しかった	-10.8427
を売っている	-10.8427
好意	-10.8431
になって初めて	-10.8432
思いやり	-10.8433
ほっと	-10.8433
市内	-10.8434
▁この花は	-10.8438
ご飯	-10.8439
▁トニー君は	-10.8443
大学に入	-10.8444
だと分かった	-10.8445
電車に乗	-10.8451
業者	-10.8454
を意味する	-10.8472
が上手です	-10.8476
を調べた	-10.8478
▁君たちは	-10.848
いただいて	-10.849
のせいだ	-10.8492
をひく	-10.8502
に反対した	-10.8506
著者	-10.8506
晴	-10.8515
てばかりいる	-10.8515
の後ろに	-10.8517
▁先生は私	-10.8525
願ってい	-10.859
言わずに	-10.8593
植え	-10.8595
に間に合う	-10.8633
を愛する	-10.865
教えている	-10.8687
に紹介し	-10.87
ればよかったのに	-10.8721
トップ	-10.8727
を供給し	-10.8743
貴重	-10.8744
遠慮なく	-10.8753
いらっしゃ	-10.8761
セー	-10.8763
同然	-10.8777
芝	-10.8781
準	-10.8782
勧	-10.8785
営	-10.8785
すなわち	-10.8787
おばあちゃん	-10.8787
ユーモア	-10.8787
喉	-10.8787
執	-10.8787
遇	-10.8787
猿	-10.8787
系	-10.8787
ハンドバッグ	-10.8787
ロバート	-10.8787
潜	-10.8787
簿	-10.8787
鯨	-10.8787
y	-10.8787
▁急ぎなさい	-10.8787
しょっちゅう	-10.8787
たびたび	-10.8787
アルバイト	-10.8787
ハンサム	-10.8787
リンカーン	-10.8787
垣	-10.8787
缶	-10.8787
魂	-10.8787
スパイ	-10.8787
テープ	-10.8787
ラケット	-10.8787
喫茶店	-10.8787
緩	-10.8787
はるばる	-10.8787
封	-10.8787
複雑な	-10.8787
主要な	-10.8787
うそをつく	-10.8787
▁近いうちに	-10.8787
に専念し	-10.8787
見積も	-10.8787
硬貨	-10.8787
牧師	-10.8787
バスケットボール	-10.8787
探検	-10.8787
っぱなしにし	-10.8787
不況	-10.8788
創造	-10.8788
酒を飲む	-10.8788
気づか	-10.8789
を取ろうと	-10.8789
金融	-10.8789
対象	-10.879
道徳	-10.879
賢明だ	-10.8791
になろうと	-10.8791
に話し掛け	-10.8791
引退	-10.8791
倒産	-10.8791
ことを認め	-10.8792
意図	-10.8792
我を忘れ	-10.8792
といけないので	-10.8793
▁この机は	-10.8793
家賃	-10.8793
わっと泣き	-10.8793
開始	-10.8794
訪ねてきた	-10.8796
学問	-10.8797
解雇された	-10.8798
幸運にも	-10.8798
決断	-10.8798
ブルー	-10.8799
金属	-10.88
一層	-10.8801
迷子	-10.8801
あわせ	-10.8802
気に入らない	-10.8804
行かせた	-10.8804
不平を言っ	-10.8809
▁僕たちは	-10.8813
▁わたしたちは	-10.8813
おなか	-10.8815
は好きですか	-10.8816
今年の夏	-10.8818
泳げ	-10.8829
分遅れ	-10.8845
▁健は	-10.8848
クラブに入	-10.8854
いただきたいのです	-10.886
さえすればいい	-10.8861
得られ	-10.888
愚	-10.8892
を訪問する	-10.8894
兄さん	-10.891
衰え	-10.8911
お目にかかれ	-10.893
わたしたち	-10.8946
風邪を引い	-10.8962
に慣れてい	-10.8963
何百	-10.8967
ことは言うまでもない	-10.897
を残した	-10.8972
物理学	-10.8984
を痛め	-10.9005
社会的	-10.9008
に参加する	-10.901
折れ	-10.9037
に直面している	-10.9074
300	-10.9078
付き合って	-10.9088
作ってくれた	-10.9092
決まって	-10.9093
起こり	-10.9095
の援助を	-10.9108
締	-10.9113
これだけ	-10.9115
かかります	-10.9135
採	-10.9168
衝	-10.917
乗組員	-10.9171
頬	-10.9171
を扱ってい	-10.9171
スイッチ	-10.9171
パイプ	-10.9171
凡	-10.9171
危険を冒	-10.9171
容疑者	-10.9171
幕	-10.9171
窮	-10.9171
膝	-10.9171
蛇	-10.9171
ぜんぜん	-10.9171
ぺ	-10.9171
肥	-10.9171
風邪をひいて	-10.9171
まじめ	-10.9171
打ち明け	-10.9171
嘘をついた	-10.9171
試験に受か	-10.9171
電車に乗り遅れ	-10.9172
医療	-10.9172
▁私の祖父は	-10.9172
美術館	-10.9172
症状	-10.9172
技師	-10.9172
誘惑	-10.9172
▁困ったことに	-10.9172
しきりに	-10.9172
刺激	-10.9172
信じられない	-10.9172
災害	-10.9173
被告	-10.9173
衛星	-10.9173
権威	-10.9173
毎晩	-10.9173
旨く行	-10.9173
設計	-10.9174
見つかった	-10.9174
ディナー	-10.9174
吸収	-10.9174
▁私の叔父は	-10.9174
ご覧	-10.9174
▁いったん	-10.9174
絶滅	-10.9175
悲劇	-10.9175
過ちを	-10.9175
を聴く	-10.9176
を襲った	-10.9176
水準	-10.9176
手を振っ	-10.9176
担当	-10.9177
が不足している	-10.9177
案内してくれた	-10.9177
よろしいでしょうか	-10.9179
おぼれ	-10.918
尊敬されている	-10.9181
ジョーク	-10.9182
かわりに	-10.9183
雨の中を	-10.9186
世論	-10.9187
を落とした	-10.9188
瞬間	-10.9191
と呼んで	-10.9192
の大半	-10.9195
と信じられてい	-10.9208
すぐに出発し	-10.922
何故	-10.9225
お金を貸して	-10.9227
連れていっ	-10.9241
野球をし	-10.9248
時ごろ	-10.9257
がとても好き	-10.9272
友人たち	-10.928
るのは不可能だ	-10.9312
リンダ	-10.9362
辞書で調べ	-10.9385
を調べて	-10.9391
かかりました	-10.9399
広がっ	-10.944
学校に遅刻し	-10.9452
試験に合格し	-10.9473
壊れてい	-10.9476
果たす	-10.9479
新車を買	-10.9533
を恥じ	-10.9551
出て行った	-10.9553
聞いたことがない	-10.9568
旨	-10.9569
章	-10.9569
査	-10.957
灯	-10.957
紛	-10.9571
伊	-10.9571
崇	-10.9571
柱	-10.9571
絞	-10.9571
ジャー	-10.9571
巡	-10.9571
漁	-10.9571
煮	-10.9571
縦	-10.9571
臆病者	-10.9571
里	-10.9571
たっぷり	-10.9571
ブラジル	-10.9571
叩	-10.9571
墓	-10.9571
やり遂げ	-10.9571
ペンキを塗	-10.9571
卑	-10.9571
猟	-10.9571
ウイスキー	-10.9571
ロケット	-10.9571
学を専攻	-10.9571
インフレ	-10.9571
タイプライター	-10.9571
岡	-10.9571
ドラマ	-10.9571
仏	-10.9571
叫び声	-10.9571
奨学金	-10.9571
尿	-10.9571
童	-10.9571
ロシア	-10.9571
隅	-10.9571
角を曲	-10.9571
の向こう側	-10.9571
チュー	-10.9572
規模	-10.9572
根拠	-10.9572
さっき	-10.9572
定刻に	-10.9572
詩を暗記	-10.9572
宿泊	-10.9573
方がましだ	-10.9573
現象	-10.9573
聞けば	-10.9573
タイヤ	-10.9573
カーペット	-10.9573
両替	-10.9573
押さえ	-10.9573
に熱中してい	-10.9574
運ばれ	-10.9574
大量の	-10.9574
温暖	-10.9574
順応	-10.9574
格好	-10.9575
ことが出来た	-10.9575
偏見	-10.9575
農業	-10.9575
麻薬	-10.9575
操作	-10.9575
事項	-10.9575
をなくしてしまった	-10.9576
ストレス	-10.9576
雨が降り始めた	-10.9576
▁その赤ん坊は	-10.9576
うそつき	-10.9577
対応	-10.9578
▁彼の演説は	-10.9578
持たない	-10.9579
機関	-10.9581
独身	-10.9581
入浴	-10.9582
山頂	-10.9582
難しかった	-10.9583
ことを後悔してい	-10.9584
ブラウン氏	-10.9585
に選ばれた	-10.9585
▁この小説は	-10.9589
▁その絵は	-10.9593
あがった	-10.9597
遊びに来	-10.9598
▁警察は彼	-10.9599
付けられ	-10.9609
を発明した	-10.9614
伝達	-10.9617
を思い出します	-10.9626
費やし	-10.9627
増えた	-10.9638
都	-10.965
を売って	-10.9665
も無駄だ	-10.967
らいいのか	-10.9678
の計画に反対	-10.9682
燃	-10.9719
に行きませんか	-10.9751
認められ	-10.9758
立ち止まっ	-10.9777
少女たち	-10.9793
助言を求め	-10.9793
友人がい	-10.9806
微笑ん	-10.981
のは危険だ	-10.9829
を越えて	-10.9856
の準備をし	-10.9883
見せてくれ	-10.9889
デモ	-10.9893
私の言うことを	-10.9901
つもりなの	-10.9907
かけられ	-10.9942
伝えられ	-10.998
儀	-10.9983
悔	-10.9983
被	-10.9985
牧	-10.9987
硬	-10.9987
サンフランシスコ	-10.9988
センター	-10.9988
ブレーキ	-10.9988
序	-10.9988
泡	-10.9988
エジソン	-10.9988
ジェット機	-10.9988
封筒	-10.9988
棄	-10.9988
葬	-10.9988
虎	-10.9988
パレード	-10.9988
幹	-10.9988
秒	-10.9988
ご存知	-10.9988
ぶらぶら	-10.9988
サラダ	-10.9988
ミーティング	-10.9988
吉	-10.9988
帆	-10.9988
新鮮な空気	-10.9988
洞	-10.9988
漢	-10.9988
耳を傾け	-10.9988
▁この薬を飲めば	-10.9988
さらに悪いことに	-10.9988
アイスクリーム	-10.9988
別れを告げ	-10.9988
揚	-10.9988
サンドイッチ	-10.9988
仕方がない	-10.9988
狩	-10.9988
かわいらしい	-10.9988
ガールフレンド	-10.9988
を超えている	-10.9988
所有している	-10.9988
桜の花	-10.9988
に任命	-10.9988
▁一番近い	-10.9988
石炭	-10.9988
年の割に	-10.9988
ごちそう	-10.9988
ペース	-10.9988
顧客	-10.9989
電灯	-10.9989
資源	-10.9989
学校を休んだ	-10.999
ピザ	-10.999
育てた	-10.999
過労	-10.999
が生じ	-10.999
▁彼は親切にも私	-10.999
黒板	-10.999
具合が悪い	-10.9991
楽しめ	-10.9991
ある種の	-10.9991
を打つ	-10.9992
家へ帰	-10.9992
情勢	-10.9992
振り返っ	-10.9994
香	-11.0403
誠	-11.0417
承	-11.042
摘	-11.0421
p	-11.0423
孫	-11.0423
疎	-11.0423
賄	-11.0423
俗	-11.0423
癌	-11.0423
豪	-11.0423
翼	-11.0423
鬼	-11.0423
湾	-11.0423
版	-11.0869
遂	-11.0875
丈	-11.0876
鹿	-11.0876
織	-11.0877
刊	-11.0877
副	-11.0877
渇	-11.0877
醜	-11.0877
盲	-11.0877
K	-11.0877
擦	-11.0877
県	-11.0877
膨	-11.0877
裸	-11.0877
傑	-11.0877
肝	-11.0877
壇	-11.0877
以	-11.1285
財	-11.1351
傾	-11.1352
舎	-11.1352
旧	-11.1353
U	-11.1353
廷	-11.1353
豚	-11.1353
巧	-11.1353
喋	-11.1353
絹	-11.1353
霜	-11.1353
摂	-11.1353
鶴	-11.1353
G	-11.1353
獣	-11.1353
皇	-11.1353
籍	-11.1353
嫁	-11.1353
喜	-11.1579
幸	-11.1809
釣	-11.1835
ィ	-11.1845
項	-11.1849
域	-11.185
療	-11.1852
票	-11.1853
紅	-11.1853
戒	-11.1853
臆	-11.1853
刀	-11.1853
如	-11.1853
鼓	-11.1853
ぇ	-11.1853
輸	-11.2335
臭	-11.2345
陽	-11.2346
駆	-11.236
候	-11.2373
雄	-11.2378
w	-11.238
狙	-11.238
粋	-11.238
H	-11.238
蝶	-11.238
貰	-11.238
g	-11.238
鈍	-11.238
又	-11.238
訂	-11.238
雅	-11.238
咳	-11.238
崎	-11.238
崖	-11.238
盤	-11.238
佐	-11.238
浸	-11.238
彩	-11.238
衰	-11.275
闇	-11.2934
穏	-11.2935
欺	-11.2935
奉	-11.2935
ゅ	-11.2935
唇	-11.2935
幻	-11.2935
斜	-11.2935
竜	-11.2935
粘	-11.2935
銘	-11.2935
袖	-11.2935
茂	-11.2935
J	-11.2935
邦	-11.2935
R	-11.2935
震	-11.3331
勘	-11.3521
令	-11.3522
菜	-11.3522
顧	-11.3522
募	-11.3523
季	-11.3523
促	-11.3524
架	-11.3524
賊	-11.3524
献	-11.3524
鑑	-11.3524
炉	-11.3524
軟	-11.3524
姫	-11.3524
換	-11.4043
興	-11.4145
授	-11.4146
訓	-11.4148
凝	-11.4149
憂	-11.4149
聡	-11.4149
鉱	-11.4149
剥	-11.4149
紐	-11.4149
蚊	-11.4149
仙	-11.4149
倉	-11.4149
拳	-11.4149
綴	-11.4149
兆	-11.4149
拓	-11.4149
拭	-11.4149
銅	-11.4149
沙	-11.4149
瀬	-11.4149
菌	-11.4149
盟	-11.4149
供	-11.4807
麦	-11.4813
符	-11.4814
k	-11.4815
迅	-11.4815
寮	-11.4815
汁	-11.4815
鐘	-11.4815
恒	-11.4815
淡	-11.4815
潰	-11.4815
噴	-11.4815
枕	-11.4815
盾	-11.4815
功	-11.5526
黄	-11.5527
微	-11.5528
奮	-11.5529
塞	-11.553
婆	-11.553
弊	-11.553
懲	-11.553
享	-11.553
塁	-11.553
摩	-11.553
阻	-11.553
諺	-11.553
鍋	-11.553
雌	-11.553
伸	-11.629
趣	-11.6297
険	-11.6297
睡	-11.6298
環	-11.6298
V	-11.6299
兼	-11.6299
垂	-11.6299
脂	-11.6299
遥	-11.6299
粒	-11.6299
錆	-11.6299
桃	-11.6299
滴	-11.6299
弓	-11.6299
掴	-11.6299
掻	-11.6299
狼	-11.6299
冠	-11.6299
昧	-11.6299
逸	-11.6299
津	-11.6299
溺	-11.6753
偏	-11.7124
忠	-11.7125
臓	-11.7128
律	-11.713
孤	-11.7131
掃	-11.7131
/	-11.7132
透	-11.7132
僧	-11.7132
舟	-11.7132
縄	-11.7132
謙	-11.7132
釘	-11.7132
饉	-11.7132
,	-11.7132
煩	-11.7132
綱	-11.7132
茎	-11.7132
把	-11.7132
江	-11.7132
鳩	-11.7132
疫	-11.7132
挫	-11.7132
溜	-11.7132
苛	-11.7132
b	-11.7132
喝	-11.7132
撤	-11.7132
誇	-11.8022
覧	-11.8034
況	-11.8037
敏	-11.804
販	-11.804
誌	-11.804
範	-11.8041
郷	-11.8041
辱	-11.8041
姓	-11.8041
杖	-11.8041
餐	-11.8041
恨	-11.8041
鋼	-11.8041
棋	-11.8041
痺	-11.8041
竹	-11.8041
v	-11.8041
扇	-11.8041
捻	-11.8041
賀	-11.8041
陶	-11.8041
憤	-11.8041
癒	-11.8041
鼠	-11.8041
+	-11.8041
葵	-11.8041
亜	-11.8041
斉	-11.8041
爪	-11.8041
嬢	-11.8041
勇	-11.9014
融	-11.9034
均	-11.904
拠	-11.904
卒	-11.904
奈	-11.904
希	-11.904
庁	-11.9041
伯	-11.9041
丹	-11.9041
f	-11.9041
肘	-11.9041
託	-11.9041
赦	-11.9041
潤	-11.9041
餅	-11.9041
呆	-11.9041
慨	-11.9041
慶	-11.9041
滝	-11.9041
粛	-11.9041
箸	-11.9041
径	-11.9041
挟	-11.9041
宜	-11.9041
婦	-11.9819
責	-11.9953
卓	-12.0149
偶	-12.0152
冒	-12.0152
沖	-12.0152
呪	-12.0152
埃	-12.0152
侮	-12.0152
懇	-12.0152
倫	-12.0152
痕	-12.0152
馴	-12.0152
勿	-12.0152
濫	-12.0152
膜	-12.0152
呈	-12.0152
賜	-12.0152
這	-12.0152
奨	-12.0152
弄	-12.0152
眉	-12.0152
紫	-12.0152
旋	-12.0152
昭	-12.0152
畳	-12.0152
耕	-12.0152
唾	-12.0152
柵	-12.0152
盆	-12.0152
轢	-12.0152
鉢	-12.0152
馳	-12.0152
乙	-12.0152
刃	-12.0152
叶	-12.0152
吊	-12.0152
罠	-12.0152
蓋	-12.0152
稽	-12.0152
究	-12.0152
揃	-12.0152
患	-12.1355
鋭	-12.1361
尋	-12.1392
浜	-12.1401
維	-12.1402
秀	-12.1402
兎	-12.1402
衡	-12.1402
溝	-12.1402
貝	-12.1402
堤	-12.1402
姪	-12.1402
訊	-12.1402
媒	-12.1402
扉	-12.1402
檻	-12.1402
籠	-12.1402
蛙	-12.1402
畜	-12.1402
括	-12.1402
須	-12.1402
淑	-12.1402
喚	-12.1402
挿	-12.1402
凧	-12.1402
還	-12.1402
那	-12.1402
耐	-12.2725
迎	-12.2745
ヶ	-12.2822
駐	-12.2823
Y	-12.2831
諾	-12.2831
欄	-12.2831
朗	-12.2831
-	-12.2831
鯉	-12.2831
圏	-12.2831
庶	-12.2831
苔	-12.2831
撒	-12.2831
遮	-12.2831
隻	-12.2831
W	-12.2831
岳	-12.2831
阿	-12.2831
剃	-12.2831
甥	-12.2831
髄	-12.2831
尺	-12.2831
旬	-12.2831
喪	-12.2831
穂	-12.2831
枠	-12.2831
剛	-12.2831
惹	-12.2831
栓	-12.2831
;	-12.2831
啓	-12.2831
綻	-12.2831
枯	-12.4262
駄	-12.4482
鈴	-12.4494
討	-12.4495
憲	-12.4495
勉	-12.4496
炭	-12.4496
糖	-12.4497
Z	-12.4497
閑	-12.4497
藁	-12.4497
浦	-12.4497
襟	-12.4497
鷹	-12.4497
"	-12.4497
菓	-12.4497
壷	-12.4498
槽	-12.4498
沼	-12.4498
瓜	-12.4498
睨	-12.4498
韻	-12.4498
唐	-12.4498
塊	-12.4498
疹	-12.4498
艦	-12.4498
戴	-12.4498
汝	-12.4498
鞭	-12.4498
姑	-12.4498
擬	-12.4498
薪	-12.4498
糧	-12.6495
漫	-12.6495
俳	-12.6497
x	-12.6497
唯	-12.6497
坦	-12.6497
罵	-12.6497
宵	-12.6497
呵	-12.6497
敢	-12.6497
梁	-12.6497
牙	-12.6497
班	-12.6497
筈	-12.6498
♪	-12.6498
悼	-12.6498
絆	-12.6498
炊	-12.6498
ぉ	-12.6498
甚	-12.6498
卿	-12.6498
叙	-12.6498
椎	-12.6498
瓦	-12.6498
奔	-12.6498
牢	-12.6498
羅	-12.6498
岬	-12.6498
禍	-12.6498
忘	-12.8855
帽	-12.8984
併	-12.8995
翻	-12.8997
玄	-12.8997
宇	-12.8997
顕	-12.8998
働	-13.074
飽	-13.2156
裕	-13.2329
府	-13.233
鬱	-13.2331
碑	-13.2331
午	-13.7309
絡	-13.733
蔑	-13.733
刷	-13.7331
貢	-13.7331
宙	-13.7331
肖	-13.7331
培	-13.7331
肯	-14.6974
痢	-14.6975
湧	-14.6976
款	-14.6977
暫	-14.6978
抹	-14.6979
墟	-14.698
堵	-14.6981
僅	-14.6982
亀	-14.6983
*	-14.6984
麓	-14.6985
躊	-14.6986
躇	-14.6987
蝠	-14.6988
蝙	-14.6989
舐	-14.699
稚	-14.6991
碁	-14.6992
畔	-14.6993
淋	-14.6994
殊	-14.6995
楼	-14.6996
朽	-14.6997
智	-14.6998
晶	-14.6999
撥	-14.7
披	-14.7001
咎	-14.7002
鹸	-14.7003
髭	-14.7004
骸	-14.7005
辿	-14.7006
賠	-14.7007
訣	-14.7008
篤	-14.7009
箋	-14.701
潟	-14.7011
漱	-14.7012
沃	-14.7013
旺	-14.7014
堕	-14.7015
噌	-14.7016
ヵ	-14.7017
肪	-14.7018
篠	-14.7019
窟	-14.702
矯	-14.7021
琶	-14.7022
琵	-14.7023
爽	-14.7024
氾	-14.7025
戯	-14.7026
憧	-14.7027
妖	-14.7028
嘲	-14.7029
凶	-14.703
陪	-14.7031
羨	-14.7032
紋	-14.7033
箇	-14.7034
狐	-14.7035
掌	-14.7036
拘	-14.7037
循	-14.7038
彙	-14.7039
凄	-14.704
亭	-14.7041
騎	-14.7042
邸	-14.7043
践	-14.7044
讐	-14.7045
碗	-14.7046
殖	-14.7047
殆	-14.7048
措	-14.7049
鍛	-14.705
錯	-14.7051
覗	-14.7052
蛮	-14.7053
薔	-14.7054
薇	-14.7055
胞	-14.7056
瞭	-14.7057
拐	-14.7058
壮	-14.7059
壌	-14.706
訟	-14.7061
董	-14.7062
痩	-14.7063
曖	-14.7064
旦	-14.7065
据	-14.7066
扶	-14.7067
勃	-14.7068
剰	-14.7069
伎	-14.707
韓	-14.7071
雀	-14.7072
虹	-14.7073
虜	-14.7074
繊	-14.7075
窃	-14.7076
秩	-14.7077
檎	-14.7078
憾	-14.7079
娯	-14.708
采	-14.7081
蜜	-14.7082
葡	-14.7083
萄	-14.7084
矛	-14.7085
瀕	-14.7086
斐	-14.7087
詐	-14.7088
燥	-14.7089
汰	-14.709
惚	-14.7091
廊	-14.7092
倹	-14.7093
零	-14.7094
溢	-14.7095
擁	-14.7096
抽	-14.7097
宴	-14.7098
傲	-14.7099
些	-14.71
綺	-14.7101
砕	-14.7102
澄	-14.7103
幌	-14.7104
哺	-14.7105
傍	-14.7106
繕	-14.7107
峡	-14.7108
荘	-14.7109
礎	-14.711
慰	-14.7111
厄	-14.7112
褒	-14.7113
禎	-14.7114
臨	-14.7115
征	-14.7116
嗅	-14.7117
乞	-14.7118
雰	-14.7119
軌	-14.712
贅	-14.7121
諦	-14.7122
芽	-14.7123
笛	-14.7124
戚	-14.7125
嫉	-14.7126
偵	-14.7127
頻	-14.7128
陳	-14.7129
賂	-14.713
虐	-14.7131
漂	-14.7132
欧	-14.7133
撲	-14.7134
慌	-14.7135
幣	-14.7136
宛	-14.7137
騙	-14.7138
詫	-14.7139
痴	-14.714
惜	-14.7141
彫	-14.7142
寧	-14.7143
ゾ	-14.7144
酬	-14.7145
貌	-14.7146
帝	-14.7147
貼	-14.7148
祉	-14.7149
珠	-14.715
搭	-14.7151
寛	-14.7152
哲	-14.7153
輩	-14.7154
薦	-14.7155
餓	-14.7156
蹴	-14.7157
暢	-14.7158
昆	-14.7159
娠	-14.716
莫	-14.7161
穀	-14.7162
漠	-14.7163
泉	-14.7164
梅	-14.7165
慈	-14.7166
堪	-14.7167
郊	-14.7168
斎	-14.7169
掲	-14.717
騰	-14.7171
粧	-14.7172
捧	-14.7173
愉	-14.7174
頓	-14.7175
拡	-14.7176
央	-14.7177
ヌ	-14.7178
挑	-14.7179
函	-14.718
儲	-14.7181
璧	-14.7182
沸	-14.7183
蒸	-14.7184
僚	-14.7185
賭	-14.7186
噛	-14.7187
脇	-14.7188
穫	-14.7189
濡	-14.719
妨	-14.7191
妊	-14.7192
拍	-14.7193
巨	-14.7194
励	-14.7195
溶	-14.7196
妥	-14.7197
吠	-14.7198
蓄	-14.7199
惰	-14.72
遭	-14.7201
徴	-14.7202
涯	-14.7203
購	-14.7204
揮	-14.7205
択	-14.7206
陥	-14.7207
遣	-14.7208
殴	-14.7209
憩	-14.721
監	-14.7211
挨	-14.7212
拶	-14.7213
飾	-14.7214
獲	-14.7215
浪	-14.7216
幽	-14.7217
嘩	-14.7218
需	-14.7219
脅	-14.722
審	-14.7221
宗	-14.7222
略	-14.7223
洪	-14.7224
飢	-14.7225
珍	-14.7226
没	-14.7227
控	-14.7228
双	-14.7229
載	-14.723
聖	-14.7231
翌	-14.7232
較	-14.7233
逮	-14.7234
嬉	-14.7235
叱	-14.7236
距	-14.7237
慎	-14.7238
鮮	-14.7239
複	-14.724
署	-14.7241
催	-14.7242
施	-14.7243
埋	-14.7244
測	-14.7245
酸	-14.7246
繰	-14.7247
眺	-14.7248
緊	-14.7249
渉	-14.725
汽	-14.7251
貿	-14.7252
濯	-14.7253
椅	-14.7254
憶	-14.7255
依	-14.7256
抑	-14.7257
呂	-14.7258
頑	-14.7259
契	-14.726
批	-14.7261
久	-14.7262
犠	-14.7263
牲	-14.7264
紳	-14.7265
標	-14.7266
奏	-14.7267
拒	-14.7268
誉	-14.7269
召	-14.727
看	-14.7271
預	-14.7272
紀	-14.7273
鉛	-14.7274
継	-14.7275
郎	-14.7276
抗	-14.7277
悩	-14.7278
刑	-14.7279
績	-14.728
攻	-14.7281
魅	-14.7282
捜	-14.7283
染	-14.7284
乏	-14.7285
紹	-14.7286
描	-14.7287
阪	-14.7288
避	-14.7289
奪	-14.729
ォ	-14.7291
冗	-14.7292
詳	-14.7293
捨	-14.7294
救	-14.7295
齢	-14.7296
委	-14.7297
般	-14.7298
喫	-14.7299
郵	-14.73
誕	-14.7301
械	-14.7302
普	-14.7303
叔	-14.7304
ァ	-14.7305
扱	-14.7306
援	-14.7307
研	-14.7308
到	-14.7309
賛	-14.731
借	-14.7311
慢	-14.7312
疲	-14.7313
臣	-14.7313
驚	-14.7314
慣	-14.7315
努	-14.7316
単	-14.7317
頼	-14.7318
払	-14.7319
限	-14.732
確	-14.7321
警	-14.7322
京	-14.7323
曜	-14.7324
析	-14.7325
験	-14.7325
ャ	-14.7326
ョ	-14.7327
昨	-14.7328
克	-14.7328
違	-14.7329
必	-14.733
膚	-14.733
隷	-14.733
康	-14.733
筒	-14.7331
徐	-14.7331
最	-14.7331
栽	-14.7331
